{
  "version": "1.0",
  "truncation": null,
  "padding": null,
  "added_tokens": [
    {
      "id": 0,
      "content": "[PAD]",
      "single_word": false,
      "lstrip": false,
      "rstrip": false,
      "normalized": false,
      "special": true
    },
    {
      "id": 1,
      "content": "[UNK]",
      "single_word": false,
      "lstrip": false,
      "rstrip": false,
      "normalized": false,
      "special": true
    },
    {
      "id": 2,
      "content": "[CLS]",
      "single_word": false,
      "lstrip": false,
      "rstrip": false,
      "normalized": false,
      "special": true
    },
    {
      "id": 3,
      "content": "[SEP]",
      "single_word": false,
      "lstrip": false,
      "rstrip": false,
      "normalized": false,
      "special": true
    },
    {
      "id": 4,
      "content": "[MASK]",
      "single_word": false,
      "lstrip": false,
      "rstrip": false,
      "normalized": false,
      "special": true
    }
  ],
  "normalizer": null,
  "pre_tokenizer": {
    "type": "Whitespace"
  },
  "post_processor": null,
  "decoder": null,
  "model": {
    "type": "BPE",
    "dropout": null,
    "unk_token": "[UNK]",
    "continuing_subword_prefix": null,
    "end_of_word_suffix": null,
    "fuse_unk": false,
    "byte_fallback": false,
    "ignore_merges": false,
    "vocab": {
      "[PAD]": 0,
      "[UNK]": 1,
      "[CLS]": 2,
      "[SEP]": 3,
      "[MASK]": 4,
      "!": 5,
      "\"": 6,
      "#": 7,
      "$": 8,
      "%": 9,
      "&": 10,
      "'": 11,
      "(": 12,
      ")": 13,
      "*": 14,
      "+": 15,
      ",": 16,
      "-": 17,
      ".": 18,
      "/": 19,
      "0": 20,
      "1": 21,
      "2": 22,
      "3": 23,
      "4": 24,
      "5": 25,
      "6": 26,
      "7": 27,
      "8": 28,
      "9": 29,
      ":": 30,
      ";": 31,
      "<": 32,
      "=": 33,
      ">": 34,
      "?": 35,
      "@": 36,
      "A": 37,
      "B": 38,
      "C": 39,
      "D": 40,
      "E": 41,
      "F": 42,
      "G": 43,
      "H": 44,
      "I": 45,
      "J": 46,
      "K": 47,
      "L": 48,
      "M": 49,
      "N": 50,
      "O": 51,
      "P": 52,
      "Q": 53,
      "R": 54,
      "S": 55,
      "T": 56,
      "U": 57,
      "V": 58,
      "W": 59,
      "X": 60,
      "Y": 61,
      "Z": 62,
      "[": 63,
      "\\": 64,
      "]": 65,
      "^": 66,
      "_": 67,
      "`": 68,
      "a": 69,
      "b": 70,
      "c": 71,
      "d": 72,
      "e": 73,
      "f": 74,
      "g": 75,
      "h": 76,
      "i": 77,
      "j": 78,
      "k": 79,
      "l": 80,
      "m": 81,
      "n": 82,
      "o": 83,
      "p": 84,
      "q": 85,
      "r": 86,
      "s": 87,
      "t": 88,
      "u": 89,
      "v": 90,
      "w": 91,
      "x": 92,
      "y": 93,
      "z": 94,
      "{": 95,
      "}": 96,
      "~": 97,
      "": 98,
      "": 99,
      "": 100,
      "": 101,
      "": 102,
      "": 103,
      "": 104,
      "": 105,
      "": 106,
      "": 107,
      "": 108,
      "": 109,
      "": 110,
      "": 111,
      "": 112,
      "": 113,
      "": 114,
      "": 115,
      "": 116,
      "": 117,
      "": 118,
      "": 119,
      "": 120,
      "": 121,
      "": 122,
      "": 123,
      "": 124,
      "¡": 125,
      "¢": 126,
      "£": 127,
      "¤": 128,
      "¥": 129,
      "¦": 130,
      "§": 131,
      "¨": 132,
      "©": 133,
      "ª": 134,
      "«": 135,
      "¬": 136,
      "®": 137,
      "¯": 138,
      "°": 139,
      "±": 140,
      "²": 141,
      "³": 142,
      "µ": 143,
      "¶": 144,
      "·": 145,
      "¸": 146,
      "¹": 147,
      "¼": 148,
      "½": 149,
      "¾": 150,
      "¿": 151,
      "Â": 152,
      "×": 153,
      "à": 154,
      "á": 155,
      "â": 156,
      "è": 157,
      "é": 158,
      "÷": 159,
      "ň": 160,
      "š": 161,
      "˚": 162,
      "α": 163,
      "β": 164,
      "θ": 165,
      "λ": 166,
      "μ": 167,
      "π": 168,
      "φ": 169,
      "ω": 170,
      "А": 171,
      "Ч": 172,
      "а": 173,
      "в": 174,
      "д": 175,
      "е": 176,
      "й": 177,
      "н": 178,
      "о": 179,
      "п": 180,
      "р": 181,
      "ँ": 182,
      "ं": 183,
      "ः": 184,
      "अ": 185,
      "आ": 186,
      "इ": 187,
      "ई": 188,
      "उ": 189,
      "ऊ": 190,
      "ऋ": 191,
      "ऍ": 192,
      "ए": 193,
      "ऐ": 194,
      "ऑ": 195,
      "ओ": 196,
      "औ": 197,
      "क": 198,
      "ख": 199,
      "ग": 200,
      "घ": 201,
      "च": 202,
      "छ": 203,
      "ज": 204,
      "झ": 205,
      "ञ": 206,
      "ट": 207,
      "ठ": 208,
      "ड": 209,
      "ढ": 210,
      "ण": 211,
      "त": 212,
      "थ": 213,
      "द": 214,
      "ध": 215,
      "न": 216,
      "प": 217,
      "फ": 218,
      "ब": 219,
      "भ": 220,
      "म": 221,
      "य": 222,
      "र": 223,
      "ल": 224,
      "ळ": 225,
      "व": 226,
      "श": 227,
      "ष": 228,
      "स": 229,
      "ह": 230,
      "़": 231,
      "ा": 232,
      "ि": 233,
      "ी": 234,
      "ु": 235,
      "ू": 236,
      "ृ": 237,
      "ॅ": 238,
      "ॆ": 239,
      "े": 240,
      "ै": 241,
      "ॉ": 242,
      "ो": 243,
      "ौ": 244,
      "्": 245,
      "।": 246,
      "०": 247,
      "१": 248,
      "२": 249,
      "३": 250,
      "४": 251,
      "५": 252,
      "६": 253,
      "७": 254,
      "८": 255,
      "९": 256,
      "•": 257,
      "⁴": 258,
      "⁵": 259,
      "⁶": 260,
      "€": 261,
      "™": 262,
      "⅓": 263,
      "⅔": 264,
      "⅕": 265,
      "⅖": 266,
      "⅗": 267,
      "⅘": 268,
      "⅙": 269,
      "→": 270,
      "∕": 271,
      "√": 272,
      "∣": 273,
      "≠": 274,
      "≤": 275,
      "≥": 276,
      "⌈": 277,
      "⌉": 278,
      "⌊": 279,
      "⌋": 280,
      "か": 281,
      "な": 282,
      "字": 283,
      "漢": 284,
      "�": 285,
      "ें": 286,
      "्र": 287,
      "र्": 288,
      "कर": 289,
      "का": 290,
      "या": 291,
      "स्": 292,
      "के": 293,
      "है": 294,
      "क्": 295,
      "को": 296,
      "ता": 297,
      "ना": 298,
      "प्र": 299,
      "सं": 300,
      "ित": 301,
      "में": 302,
      "लि": 303,
      "से": 304,
      "वि": 305,
      "ही": 306,
      "करें": 307,
      "ने": 308,
      "फ़": 309,
      "नही": 310,
      "नहीं": 311,
      "ाइ": 312,
      "ल्": 313,
      "जा": 314,
      "मा": 315,
      "on": 316,
      "यो": 317,
      "पर": 318,
      "नि": 319,
      "्य": 320,
      "दे": 321,
      "ti": 322,
      "लिए": 323,
      "ार": 324,
      "me": 325,
      "एँ": 326,
      "की": 327,
      "ाइल": 328,
      "कि": 329,
      "tion": 330,
      "दि": 331,
      "ति": 332,
      "ला": 333,
      "ले": 334,
      "पा": 335,
      "देश": 336,
      "खा": 337,
      "वा": 338,
      "ड़": 339,
      "फ़ाइल": 340,
      "हा": 341,
      "चा": 342,
      "ame": 343,
      "ंग": 344,
      "आप": 345,
      "त्र": 346,
      "ोल्": 347,
      "टा": 348,
      "क्ष": 349,
      "an": 350,
      "सा": 351,
      "प्": 352,
      "क्र": 353,
      "स्थ": 354,
      "मि": 355,
      "डि": 356,
      "संदेश": 357,
      "ेज": 358,
      "न्": 359,
      "सू": 360,
      "सम": 361,
      "डर": 362,
      "सूच": 363,
      "इस": 364,
      "al": 365,
      "योग": 366,
      "मे": 367,
      "नाम": 368,
      "la": 369,
      "हो": 370,
      "उप": 371,
      "ोल्डर": 372,
      "हैं": 373,
      "रा": 374,
      "टि": 375,
      "it": 376,
      "एक": 377,
      "रू": 378,
      "रि": 379,
      "जो": 380,
      "दा": 381,
      "फ़ोल्डर": 382,
      "ते": 383,
      "es": 384,
      "gm": 385,
      "अन": 386,
      "ंड": 387,
      "बा": 388,
      "नी": 389,
      "kgm": 390,
      "सी": 391,
      "खो": 392,
      "tr": 393,
      "er": 394,
      "op": 395,
      "सक": 396,
      "कार": 397,
      "वर्": 398,
      "ed": 399,
      "डा": 400,
      "लो": 401,
      "in": 402,
      "दिखा": 403,
      "स्त": 404,
      "ष्": 405,
      "रहा": 406,
      "लें": 407,
      "name": 408,
      "कार्": 409,
      "ुन": 410,
      "option": 411,
      "ro": 412,
      "सूची": 413,
      "क्रि": 414,
      "भी": 415,
      "वर": 416,
      "ot": 417,
      "त्": 418,
      "यू": 419,
      "optional": 420,
      "ans": 421,
      "यह": 422,
      "trans": 423,
      "शन": 424,
      "पू": 425,
      "transla": 426,
      "करने": 427,
      "क्या": 428,
      "स्था": 429,
      "do": 430,
      "यन": 431,
      "डी": 432,
      "वी": 433,
      "अनु": 434,
      "or": 435,
      "टी": 436,
      "bl": 437,
      "री": 438,
      "ली": 439,
      "परि": 440,
      "निर्": 441,
      "चाह": 442,
      "¤¾": 443,
      "ne": 444,
      "मान": 445,
      "ों": 446,
      "pro": 447,
      "बना": 448,
      "ग्र": 449,
      "गा": 450,
      "द्": 451,
      "किया": 452,
      "¥": 453,
      "और": 454,
      "छवि": 455,
      "ब्": 456,
      "translation": 457,
      "¤": 458,
      "र्क": 459,
      "सह": 460,
      "ba": 461,
      "जोड़": 462,
      "चयन": 463,
      "need": 464,
      "सकता": 465,
      "not": 466,
      "ity": 467,
      "th": 468,
      "Name": 469,
      "कु": 470,
      "फल": 471,
      "कार्य": 472,
      "संप": 473,
      "¤°": 474,
      "सका": 475,
      "धि": 476,
      "स्ट": 477,
      "कोई": 478,
      "स्ता": 479,
      "रूप": 480,
      "City": 481,
      "चुन": 482,
      "does": 483,
      "bly": 484,
      "proba": 485,
      "probably": 486,
      "सि": 487,
      "रे": 488,
      "्न": 489,
      "स्क": 490,
      "पं": 491,
      "प्रयोग": 492,
      "लग": 493,
      "हु": 494,
      "ंत": 495,
      "पूर्": 496,
      "गया": 497,
      "मिटा": 498,
      "कृ": 499,
      "¥": 500,
      "सहेज": 501,
      "सभी": 502,
      "सर्": 503,
      "प्त": 504,
      "जी": 505,
      "ती": 506,
      "त्रु": 507,
      "डाक": 508,
      "रो": 509,
      "पन": 510,
      "ंडो": 511,
      "त्रुटि": 512,
      "अप": 513,
      "चुनें": 514,
      "स्थित": 515,
      "ज़": 516,
      "विंडो": 517,
      "ये": 518,
      "ar": 519,
      "टर": 520,
      "संपर्क": 521,
      "वे": 522,
      "दिखाएँ": 523,
      "ज्": 524,
      "पु": 525,
      "st": 526,
      "प्रा": 527,
      "र्थ": 528,
      "पता": 529,
      "ट्": 530,
      "चयनित": 531,
      "बद": 532,
      "सर्वर": 533,
      "ic": 534,
      "मु": 535,
      "en": 536,
      "मौ": 537,
      "शी": 538,
      "शि": 539,
      "पाद": 540,
      "भा": 541,
      "¤¿": 542,
      "ंच": 543,
      "इन": 544,
      "श्य": 545,
      "बं": 546,
      "लाइ": 547,
      "क्स": 548,
      "नया": 549,
      "फि": 550,
      "साथ": 551,
      "समर्थ": 552,
      "शा": 553,
      "at": 554,
      "विक": 555,
      "पि": 556,
      "ंभ": 557,
      "समय": 558,
      "डे": 559,
      "मो": 560,
      "¤¨": 561,
      "गु": 562,
      "करण": 563,
      "ारा": 564,
      "वर्त": 565,
      "¤¸": 566,
      "जि": 567,
      "ंक": 568,
      "चि": 569,
      "संपाद": 570,
      "हे": 571,
      "कॉ": 572,
      "लोड": 573,
      "जू": 574,
      "िका": 575,
      "स्थिति": 576,
      "उपयोग": 577,
      "प्रो": 578,
      "ज्ञ": 579,
      "डिस्क": 580,
      "ट्र": 581,
      "ज्ञा": 582,
      "श्": 583,
      "करता": 584,
      "om": 585,
      "खें": 586,
      "सूचना": 587,
      "दृ": 588,
      "ड़ा": 589,
      "¤": 590,
      "पह": 591,
      "टे": 592,
      "बि": 593,
      "समा": 594,
      "पी": 595,
      "क्त": 596,
      "खोज": 597,
      "ष्ठ": 598,
      "क्रिय": 599,
      "ल्प": 600,
      "क्ति": 601,
      "शब्": 602,
      "जोड़ें": 603,
      "ब्र": 604,
      "पया": 605,
      "दर्": 606,
      "कृपया": 607,
      "जब": 608,
      "re": 609,
      "le": 610,
      "दृश्य": 611,
      "चाहते": 612,
      "एव": 613,
      "सेट": 614,
      "रंग": 615,
      "डियो": 616,
      "पट्": 617,
      "भेज": 618,
      "शब्द": 619,
      "¤²": 620,
      "विकल्प": 621,
      "एं": 622,
      "मेल": 623,
      "फाइल": 624,
      "अधि": 625,
      "आर": 626,
      "र्ष": 627,
      "यूशन": 628,
      "ou": 629,
      "र्ता": 630,
      "ोल्यूशन": 631,
      "पृ": 632,
      "प्रार": 633,
      "बै": 634,
      "पट्टी": 635,
      "पाठ": 636,
      "शु": 637,
      "एवोल्यूशन": 638,
      "शीर्ष": 639,
      "वै": 640,
      "द्व": 641,
      "्यू": 642,
      "मौजू": 643,
      "is": 644,
      "पृष्ठ": 645,
      "क्रिया": 646,
      "ेष": 647,
      "योज": 648,
      "लेख": 649,
      "जाएँ": 650,
      "the": 651,
      "हर": 652,
      "खोलें": 653,
      "्या": 654,
      "करना": 655,
      "प्लग": 656,
      "चांग": 657,
      "पंचांग": 658,
      "चे": 659,
      "आकार": 660,
      "द्वारा": 661,
      "हटा": 662,
      "क़": 663,
      "जे": 664,
      "ूट": 665,
      "सहेजें": 666,
      "men": 667,
      "निर्देश": 668,
      "माण": 669,
      "क्ता": 670,
      "था": 671,
      "लिक": 672,
      "प्राप्त": 673,
      "ोर्": 674,
      "अग": 675,
      "पे": 676,
      "el": 677,
      "गे": 678,
      "दी": 679,
      "पित": 680,
      "भि": 681,
      "चित": 682,
      "स्तु": 683,
      "स्व": 684,
      "आई": 685,
      "तु": 686,
      "कै": 687,
      "स्ताव": 688,
      "कर्ता": 689,
      "खे": 690,
      "ol": 691,
      "फ़ॉ": 692,
      "¤®": 693,
      "फिर": 694,
      "क्षर": 695,
      "ेत्र": 696,
      "पत्र": 697,
      "स्थान": 698,
      "¥": 699,
      "ष्ट": 700,
      "ढ़": 701,
      "व्य": 702,
      "यात": 703,
      "मेरि": 704,
      "पसं": 705,
      "गल": 706,
      "कूट": 707,
      "क्षेत्र": 708,
      "दस्ताव": 709,
      "दस्तावेज": 710,
      "यु": 711,
      "योजना": 712,
      "क्षम": 713,
      "गी": 714,
      "लिख": 715,
      "गो": 716,
      "ªà": 717,
      "00": 718,
      "वस्तु": 719,
      "अमेरि": 720,
      "प्रमाण": 721,
      "पहले": 722,
      "सफल": 723,
      "ec": 724,
      "लॉ": 725,
      "अमेरिका": 726,
      "सु": 727,
      "बनाएँ": 728,
      "श्र": 729,
      "ंट": 730,
      "बे": 731,
      "खाता": 732,
      "मिटाएँ": 733,
      "स्क्र": 734,
      "ut": 735,
      "योक्ता": 736,
      "मद": 737,
      "पूर्ण": 738,
      "यदि": 739,
      "बार": 740,
      "म्": 741,
      "ग्रा": 742,
      "किसी": 743,
      "¤¯": 744,
      "खि": 745,
      "यों": 746,
      "सक्रिय": 747,
      "नीय": 748,
      "यें": 749,
      "हैः": 750,
      "निर्देशिका": 751,
      "स्वी": 752,
      "धार": 753,
      "वैध": 754,
      "लाइन": 755,
      "परियोजना": 756,
      "पै": 757,
      "अंत": 758,
      "ra": 759,
      "ment": 760,
      "सार": 761,
      "बी": 762,
      "se": 763,
      "अं": 764,
      "बंध": 765,
      "चाहि": 766,
      "दू": 767,
      "¤¤": 768,
      "बदलें": 769,
      "पुन": 770,
      "फ्र": 771,
      "हस्ता": 772,
      "ीन": 773,
      "ड़ी": 774,
      "of": 775,
      "प्रति": 776,
      "विफल": 777,
      "ँच": 778,
      "आयात": 779,
      "लिये": 780,
      "ंत्र": 781,
      "फ़ि": 782,
      "कूटशब्द": 783,
      "¤": 784,
      "चाहिए": 785,
      "कें": 786,
      "निय": 787,
      "ख्या": 788,
      "याँ": 789,
      "त्या": 790,
      "टै": 791,
      "कमा": 792,
      "प्रमाणपत्र": 793,
      "अभि": 794,
      "छो": 795,
      "ह्न": 796,
      "टॉ": 797,
      "प्रकार": 798,
      "ोत": 799,
      "टो": 800,
      "प्रदर्": 801,
      "उपयोक्ता": 802,
      "कमांड": 803,
      "एस": 804,
      "तर": 805,
      "शित": 806,
      "चु": 807,
      "शिया": 808,
      "स्क्रीन": 809,
      "खोल": 810,
      "ढू": 811,
      "¥": 812,
      "नक़": 813,
      "णी": 814,
      "सकते": 815,
      "चिह्न": 816,
      "हाँ": 817,
      "तक": 818,
      "संख्या": 819,
      "Com": 820,
      "क्ट": 821,
      "परिवर्त": 822,
      "ज्ञापन": 823,
      "मोड": 824,
      "खाली": 825,
      "अधिक": 826,
      "नक़ल": 827,
      "il": 828,
      "मौजूदा": 829,
      "गुण": 830,
      "लै": 831,
      "पंक्ति": 832,
      "दो": 833,
      "हस्ताक्षर": 834,
      "कन": 835,
      "for": 836,
      "उन": 837,
      "मी": 838,
      "आपके": 839,
      "Comment": 840,
      "रद्": 841,
      "चाल": 842,
      "di": 843,
      "खेल": 844,
      "\\\\": 845,
      "पसंद": 846,
      "तय": 847,
      "यास": 848,
      "तम": 849,
      "असफल": 850,
      "फो": 851,
      "स्ति": 852,
      "कुं": 853,
      "us": 854,
      "यी": 855,
      "ce": 856,
      "¤¹": 857,
      "वीडियो": 858,
      "ur": 859,
      "प्रारंभ": 860,
      "फ्": 861,
      "जाए": 862,
      "ंढ": 863,
      "छा": 864,
      "AP": 865,
      "समू": 866,
      "प्लगइन": 867,
      "इसे": 868,
      "घट": 869,
      "बाहर": 870,
      "बंद": 871,
      "ग्राम": 872,
      "न्ट": 873,
      "अन्य": 874,
      "तो": 875,
      "मान्य": 876,
      "शुदा": 877,
      "तयशुदा": 878,
      "िन": 879,
      "ea": 880,
      "विष": 881,
      "पास": 882,
      "ल्टर": 883,
      "नो": 884,
      "पुस्ति": 885,
      "ढूंढ": 886,
      "पुस्तिका": 887,
      "द्र": 888,
      "कुंजी": 889,
      "रखें": 890,
      "चौ": 891,
      "उट": 892,
      "यता": 893,
      "दु": 894,
      "पूर्वा": 895,
      "र्फ": 896,
      "ma": 897,
      "्व": 898,
      "अभिलेख": 899,
      "रहे": 900,
      "एशिया": 901,
      "टन": 902,
      "आउट": 903,
      "चला": 904,
      "ओं": 905,
      "प्रोग्राम": 906,
      "इंच": 907,
      "कुछ": 908,
      "ज्ञात": 909,
      "भू": 910,
      "प्रेष": 911,
      "काल": 912,
      "अवैध": 913,
      "तथा": 914,
      "क्लिक": 915,
      "योग्य": 916,
      "परिवर्तन": 917,
      "निश्": 918,
      "µà": 919,
      "दें": 920,
      "स्र": 921,
      "न्यू": 922,
      "लोकन": 923,
      "अज्ञात": 924,
      "लग्न": 925,
      "निश्चित": 926,
      "स्रोत": 927,
      "न्यास": 928,
      "वलोकन": 929,
      "to": 930,
      "आरंभ": 931,
      "ia": 932,
      "पूर्वावलोकन": 933,
      "लॉग": 934,
      "मिला": 935,
      "कम": 936,
      "जांच": 937,
      "ूप": 938,
      "हि": 939,
      "संपादक": 940,
      "दिया": 941,
      "समूह": 942,
      "स्करण": 943,
      "जाने": 944,
      "भेजें": 945,
      "विषय": 946,
      "द्य": 947,
      "एल": 948,
      "समर्थित": 949,
      "रिक्त": 950,
      "युक्त": 951,
      "संस्करण": 952,
      "जान": 953,
      "यर": 954,
      "मू": 955,
      "निर्दि": 956,
      "स्थानीय": 957,
      "प्रबंध": 958,
      "दस्तावेज़": 959,
      "थि": 960,
      "विन्यास": 961,
      "ther": 962,
      "पिछ": 963,
      "निर्दिष्ट": 964,
      "ch": 965,
      "¤": 966,
      "लब्": 967,
      "लब्ध": 968,
      "सत्या": 969,
      "होने": 970,
      "सकाः": 971,
      "अद्य": 972,
      "ैसे": 973,
      "सीडी": 974,
      "अद्यत": 975,
      "संलग्न": 976,
      "बर": 977,
      "ध्व": 978,
      "भाष": 979,
      "कॉल": 980,
      "फ़ाइलें": 981,
      "नए": 982,
      "टिंग": 983,
      "यहाँ": 984,
      "बग": 985,
      "प्रती": 986,
      "निम": 987,
      "वल": 988,
      "गए": 989,
      "रख": 990,
      "तः": 991,
      "न्न": 992,
      "रण": 993,
      "पोर्": 994,
      "AN": 995,
      "सामान्य": 996,
      "UR": 997,
      "RS": 998,
      "¤": 999,
      "साइ": 1000,
      "हित": 1001,
      "अनुप्रयोग": 1002,
      "फ़ॉन्ट": 1003,
      "ईमेल": 1004,
      "वेब": 1005,
      "ex": 1006,
      "आपको": 1007,
      "घु": 1008,
      "क्रम": 1009,
      "समर्थन": 1010,
      "सब": 1011,
      "बैठ": 1012,
      "समाप्त": 1013,
      "जाना": 1014,
      "जाता": 1015,
      "¤": 1016,
      "रान": 1017,
      "्स": 1018,
      "पो": 1019,
      "जाँच": 1020,
      "एक्स": 1021,
      "वर्तमान": 1022,
      "यूरो": 1023,
      "li": 1024,
      "ld": 1025,
      "उत्": 1026,
      "जरू": 1027,
      "जु": 1028,
      "संग": 1029,
      "पढ़": 1030,
      "दौ": 1031,
      "बदल": 1032,
      "SL": 1033,
      "ध्वनि": 1034,
      "मति": 1035,
      "फ्री": 1036,
      "शीर्षक": 1037,
      "कने": 1038,
      "बैठक": 1039,
      "स्ट्र": 1040,
      "तिथि": 1041,
      "वरण": 1042,
      "हेतु": 1043,
      "अनुमति": 1044,
      "छु": 1045,
      "ate": 1046,
      "प्रारूप": 1047,
      "पोर्ट": 1048,
      "कृत": 1049,
      "दौरान": 1050,
      "इं": 1051,
      "ge": 1052,
      "सिर्फ": 1053,
      "कारी": 1054,
      "ri": 1055,
      "टें": 1056,
      "IM": 1057,
      "क्शन": 1058,
      "Con": 1059,
      "ion": 1060,
      "बर्": 1061,
      "हटाएँ": 1062,
      "करे": 1063,
      "पथ": 1064,
      "उपलब्ध": 1065,
      "ऊपर": 1066,
      "दिन": 1067,
      "स्थापित": 1068,
      "ढूंढें": 1069,
      "संपादित": 1070,
      "वाब": 1071,
      "र्स": 1072,
      "घटना": 1073,
      "अव": 1074,
      "ट्रै": 1075,
      "सक्षम": 1076,
      "निष्": 1077,
      "wea": 1078,
      "weather": 1079,
      "जवाब": 1080,
      "डाटा": 1081,
      "उस": 1082,
      "बटन": 1083,
      "200": 1084,
      "वां": 1085,
      "एम": 1086,
      "टैब": 1087,
      "चौड़ा": 1088,
      "बाद": 1089,
      "नई": 1090,
      "बल": 1091,
      "रद्द": 1092,
      "oo": 1093,
      "जिस": 1094,
      "ome": 1095,
      "कॉन्": 1096,
      "चौड़ाई": 1097,
      "चिह्नित": 1098,
      "स्तर": 1099,
      "छोड़": 1100,
      "HT": 1101,
      "डीवी": 1102,
      "जन": 1103,
      "कात": 1104,
      "मिल": 1105,
      "मुला": 1106,
      "कार्ड": 1107,
      "मुलाकात": 1108,
      "विधि": 1109,
      "वाद": 1110,
      "नामः": 1111,
      "ण्": 1112,
      "रें": 1113,
      "सत्र": 1114,
      "मुख": 1115,
      "¤¦": 1116,
      "मदद": 1117,
      "पहु": 1118,
      "लं": 1119,
      "मन": 1120,
      "मौजूद": 1121,
      "शीर्षिका": 1122,
      "सत्यापन": 1123,
      "ht": 1124,
      "¤«": 1125,
      "ran": 1126,
      "लिंक": 1127,
      "पूर्व": 1128,
      "अगर": 1129,
      "लिखने": 1130,
      "डीवीडी": 1131,
      "pa": 1132,
      "लाग": 1133,
      "फा": 1134,
      "मित": 1135,
      "आव": 1136,
      "नीचे": 1137,
      "डाउन": 1138,
      "हरा": 1139,
      "होता": 1140,
      "लक्ष": 1141,
      "स्थायी": 1142,
      "gn": 1143,
      "वाले": 1144,
      "मिन": 1145,
      "qu": 1146,
      "कं": 1147,
      "com": 1148,
      "¤¬": 1149,
      "स्वतः": 1150,
      "अद्यतन": 1151,
      "वर्ण": 1152,
      "कोड": 1153,
      "ल्य": 1154,
      "निम्न": 1155,
      "अक्षम": 1156,
      "¤¡": 1157,
      "बैक": 1158,
      "AR": 1159,
      "जानकारी": 1160,
      "अफ्री": 1161,
      "मै": 1162,
      "विश": 1163,
      "पुट": 1164,
      "भूमि": 1165,
      "ऑडियो": 1166,
      "लक्ष्य": 1167,
      "un": 1168,
      "एन": 1169,
      "ल्ट": 1170,
      "प्रदर्शित": 1171,
      "संपादन": 1172,
      "ज़ू": 1173,
      "लिया": 1174,
      "अफ्रीका": 1175,
      "आधार": 1176,
      "निष्क्रिय": 1177,
      "ac": 1178,
      "असमर्थ": 1179,
      "इसके": 1180,
      "टॉप": 1181,
      "डेस्क": 1182,
      "छुपा": 1183,
      "स्म": 1184,
      "ेजा": 1185,
      "ड्र": 1186,
      "ग्रह": 1187,
      "यूरोप": 1188,
      "सद": 1189,
      "ऑफ़": 1190,
      "देखें": 1191,
      "oun": 1192,
      "भाव": 1193,
      "¤¼": 1194,
      "प्रवि": 1195,
      "अपने": 1196,
      "सदस्": 1197,
      "पुनर्": 1198,
      "as": 1199,
      "दूस": 1200,
      "अति": 1201,
      "दिखायें": 1202,
      "डाउनलोड": 1203,
      "चै": 1204,
      "ऑफ़लाइन": 1205,
      "सें": 1206,
      "देख": 1207,
      "गई": 1208,
      "and": 1209,
      "डेस्कटॉप": 1210,
      "but": 1211,
      "बहु": 1212,
      "फ्लै": 1213,
      "ener": 1214,
      "प्ट": 1215,
      "con": 1216,
      "केवल": 1217,
      "translat": 1218,
      "de": 1219,
      "ंश": 1220,
      "vi": 1221,
      "ध्य": 1222,
      "द्ध": 1223,
      "फोल्डर": 1224,
      "be": 1225,
      "क्सी": 1226,
      "ब्रा": 1227,
      "gnome": 1228,
      "संके": 1229,
      "तिम": 1230,
      "खिसका": 1231,
      "हुआ": 1232,
      "अंतिम": 1233,
      "ID": 1234,
      "wor": 1235,
      "ण्ड": 1236,
      "िंग": 1237,
      "जेक्ट": 1238,
      "रक्ष": 1239,
      "भार": 1240,
      "ष्टि": 1241,
      "अगला": 1242,
      "चालित": 1243,
      "संलग्नक": 1244,
      "विवरण": 1245,
      "डिंग": 1246,
      "उपकरण": 1247,
      "कच": 1248,
      "गति": 1249,
      "निक": 1250,
      "त्व": 1251,
      "फ़िल्टर": 1252,
      "प्रतीक": 1253,
      "po": 1254,
      "ML": 1255,
      "कोशि": 1256,
      "सेटिंग": 1257,
      "तंत्र": 1258,
      "बु": 1259,
      "stel": 1260,
      "णा": 1261,
      "सुरक्ष": 1262,
      "ब्रे": 1263,
      "कोशिश": 1264,
      "Gener": 1265,
      "RAN": 1266,
      "fo": 1267,
      "¤": 1268,
      "¥": 1269,
      "तस्वी": 1270,
      "lation": 1271,
      "विश्": 1272,
      "ग्री": 1273,
      "प्रशा": 1274,
      "आपने": 1275,
      "ट्रैक": 1276,
      "आपका": 1277,
      "Constel": 1278,
      "Constellation": 1279,
      "च्": 1280,
      "पार": 1281,
      "प्लगिन": 1282,
      "आंक": 1283,
      "प्रयुक्त": 1284,
      "sh": 1285,
      "tp": 1286,
      "quot": 1287,
      "चाई": 1288,
      "कॉन्फ़ि": 1289,
      "वर्ड": 1290,
      "फ्लैग": 1291,
      "ौर": 1292,
      "माल": 1293,
      "तस्वीर": 1294,
      "साफ": 1295,
      "किए": 1296,
      "अधिकतम": 1297,
      "भाषा": 1298,
      "लिखें": 1299,
      "AT": 1300,
      "¤¶": 1301,
      "प्रबंधक": 1302,
      "न्द": 1303,
      "ट्री": 1304,
      "कॉन्फ़िग": 1305,
      "af": 1306,
      "विलो": 1307,
      "der": 1308,
      "स्ते": 1309,
      "क्लि": 1310,
      "स्वचालित": 1311,
      "कचरा": 1312,
      "कता": 1313,
      "अतिरिक्त": 1314,
      "¥": 1315,
      "mp": 1316,
      "बो": 1317,
      "प्ति": 1318,
      "TP": 1319,
      "hi": 1320,
      "http": 1321,
      "धन": 1322,
      "info": 1323,
      "बोर्": 1324,
      "मत": 1325,
      "लाल": 1326,
      "ची": 1327,
      "ल्ड": 1328,
      "प्राप्तकर्ता": 1329,
      "गलत": 1330,
      "गोपन": 1331,
      "अग्र": 1332,
      "ing": 1333,
      "जाएगा": 1334,
      "प्रोजेक्ट": 1335,
      "दूर": 1336,
      "मुख्य": 1337,
      "डो": 1338,
      "पुनः": 1339,
      "क्से": 1340,
      "¥": 1341,
      "शुरू": 1342,
      "SO": 1343,
      "mb": 1344,
      "ter": 1345,
      "र्ट": 1346,
      "होगा": 1347,
      "शो": 1348,
      "घुमा": 1349,
      "तौर": 1350,
      "OF": 1351,
      "डिफ़ॉ": 1352,
      "थी": 1353,
      "सहा": 1354,
      "केडी": 1355,
      "क़ि": 1356,
      "प्ता": 1357,
      "ica": 1358,
      "स्वीकार": 1359,
      "पहुँच": 1360,
      "सदस्यता": 1361,
      "डिफ़ॉल्ट": 1362,
      "क़िस्म": 1363,
      "पॉ": 1364,
      "युक्ति": 1365,
      "टाइ": 1366,
      "त्रुटिः": 1367,
      "जार": 1368,
      "विफलः": 1369,
      "TRAN": 1370,
      "जिसे": 1371,
      "फलक": 1372,
      "ब्राउ": 1373,
      "पें": 1374,
      "वाप": 1375,
      "निर्धार": 1376,
      "HTML": 1377,
      "बॉ": 1378,
      "यक": 1379,
      "व्यस्त": 1380,
      "समाहित": 1381,
      "नियंत्र": 1382,
      "ap": 1383,
      "पान": 1384,
      "इस्ते": 1385,
      "डिबग": 1386,
      "सम्": 1387,
      "इस्तेमाल": 1388,
      "बोर्ड": 1389,
      "न्स": 1390,
      "मनपसंद": 1391,
      "वर्ग": 1392,
      "ATO": 1393,
      "खोजें": 1394,
      "प्रेषक": 1395,
      "SLATO": 1396,
      "TRANSLATO": 1397,
      "TRANSLATORS": 1398,
      "नेट": 1399,
      "प्रशांत": 1400,
      "59": 1401,
      "चर": 1402,
      "स्टम": 1403,
      "आँ": 1404,
      "गत": 1405,
      "लागू": 1406,
      "ME": 1407,
      "केंड": 1408,
      "शै": 1409,
      "पासवर्ड": 1410,
      "स्क्रि": 1411,
      "ite": 1412,
      "ट्स": 1413,
      "भरें": 1414,
      "प्रसंग": 1415,
      "पहचा": 1416,
      "ke": 1417,
      "बढ़": 1418,
      "ev": 1419,
      "सन": 1420,
      "हास": 1421,
      "केडीई": 1422,
      "ेंगे": 1423,
      "करेंः": 1424,
      "जमा": 1425,
      "छोड़ें": 1426,
      "छुपाएँ": 1427,
      "क्लिप": 1428,
      "ts": 1429,
      "वास्त": 1430,
      "ta": 1431,
      "शामिल": 1432,
      "इति": 1433,
      "ईंट": 1434,
      "जारी": 1435,
      "कैम": 1436,
      "इतिहास": 1437,
      "ng": 1438,
      "स्मा": 1439,
      "श्रे": 1440,
      "खोलने": 1441,
      "पिछला": 1442,
      "da": 1443,
      "sion": 1444,
      "संस्थापित": 1445,
      "साम": 1446,
      "वरी": 1447,
      "वेद": 1448,
      "िक": 1449,
      "फोन": 1450,
      "ast": 1451,
      "सही": 1452,
      "प्ले": 1453,
      "कल": 1454,
      "सीमा": 1455,
      "पुस्त": 1456,
      "खिल": 1457,
      "बन्द": 1458,
      "ृत्": 1459,
      "जाये": 1460,
      "कुम": 1461,
      "mi": 1462,
      "धित": 1463,
      "दाखिल": 1464,
      "विलोपित": 1465,
      "ब्रैसे": 1466,
      "ब्रैसेरो": 1467,
      "हुकुम": 1468,
      "शक": 1469,
      "चेता": 1470,
      "सॉ": 1471,
      "सारा": 1472,
      "पूछ": 1473,
      "बनाने": 1474,
      "दीदा": 1475,
      "चिड़ी": 1476,
      "निका": 1477,
      "पसंदीदा": 1478,
      "वापस": 1479,
      "वाली": 1480,
      "ज्या": 1481,
      "निर्धारित": 1482,
      "आँक": 1483,
      "चेताव": 1484,
      "चल": 1485,
      "कनेक्शन": 1486,
      "PO": 1487,
      "लु": 1488,
      "उपस्थित": 1489,
      "¤": 1490,
      "अक्षर": 1491,
      "धा": 1492,
      "नतम": 1493,
      "किन": 1494,
      "पृष्ठभूमि": 1495,
      "टॉगल": 1496,
      "प्रक्रिया": 1497,
      "त्ता": 1498,
      "जरूर": 1499,
      "सर": 1500,
      "ल्स": 1501,
      "आंकड़ा": 1502,
      "शैली": 1503,
      "स्क्रिप्ट": 1504,
      "निजी": 1505,
      "12": 1506,
      "An": 1507,
      "चार": 1508,
      "न्दु": 1509,
      "ज़ार": 1510,
      "बतौर": 1511,
      "फे": 1512,
      "याद": 1513,
      "औज़ार": 1514,
      "दूसरे": 1515,
      "¤": 1516,
      "सुरक्षित": 1517,
      "बैकअप": 1518,
      "ile": 1519,
      "बिन्दु": 1520,
      "पूरा": 1521,
      "चाहेंगे": 1522,
      "नल": 1523,
      "फिल्टर": 1524,
      "दबा": 1525,
      "are": 1526,
      "भाग": 1527,
      "बिना": 1528,
      "world": 1529,
      "URI": 1530,
      "उदा": 1531,
      "करेगा": 1532,
      "चेतावनी": 1533,
      "याई": 1534,
      "रद्दी": 1535,
      "आवश्य": 1536,
      "पहचान": 1537,
      "ow": 1538,
      "पाइ": 1539,
      "रक": 1540,
      "बारे": 1541,
      "अक्ष": 1542,
      "हला": 1543,
      "जोड़ने": 1544,
      "केंद्र": 1545,
      "विस्ता": 1546,
      "होम": 1547,
      "मॉ": 1548,
      "ee": 1549,
      "ew": 1550,
      "शे": 1551,
      "हें": 1552,
      "प्रॉ": 1553,
      "क्लिपबोर्ड": 1554,
      "अंतर्": 1555,
      "¤": 1556,
      "GN": 1557,
      "जै": 1558,
      "दर": 1559,
      "आँकड़ा": 1560,
      "02": 1561,
      "जर": 1562,
      "कों": 1563,
      "खिसकाएँ": 1564,
      "हमे": 1565,
      "लेकिन": 1566,
      "dition": 1567,
      "आउटपुट": 1568,
      "करते": 1569,
      "संबंध": 1570,
      "वाला": 1571,
      "ecast": 1572,
      "forecast": 1573,
      "हुई": 1574,
      "मिटाना": 1575,
      "टैग": 1576,
      "हमेशा": 1577,
      "ve": 1578,
      "कई": 1579,
      "त्य": 1580,
      "स्तंभ": 1581,
      "jut": 1582,
      "उन्": 1583,
      "सो": 1584,
      "फ़ाइलों": 1585,
      "ज़र": 1586,
      "मेन": 1587,
      "डेटा": 1588,
      "भेजा": 1589,
      "मुद्र": 1590,
      "कॉपी": 1591,
      "इससे": 1592,
      "rat": 1593,
      "टिक": 1594,
      "रिक": 1595,
      "बीच": 1596,
      "juta": 1597,
      "अस्थायी": 1598,
      "संवाद": 1599,
      "संदेशों": 1600,
      "प्रदर्शक": 1601,
      "विस्तार": 1602,
      "प्रॉक्सी": 1603,
      "IL": 1604,
      "सप्ता": 1605,
      "स्के": 1606,
      "ory": 1607,
      "मौज़ू": 1608,
      "जरूरी": 1609,
      "¥": 1610,
      "end": 1611,
      "मेज": 1612,
      "पाया": 1613,
      "औजार": 1614,
      "जैसे": 1615,
      "बजा": 1616,
      "MA": 1617,
      "ubl": 1618,
      "सारांश": 1619,
      "फी": 1620,
      "सारणी": 1621,
      "rance": 1622,
      "विशेष": 1623,
      "गण": 1624,
      "सहायक": 1625,
      "Anjuta": 1626,
      "लिखा": 1627,
      "वास्तव": 1628,
      "वह": 1629,
      "देता": 1630,
      "तुल्य": 1631,
      "ंस": 1632,
      "पठ": 1633,
      "क्का": 1634,
      "वर्णन": 1635,
      "rec": 1636,
      "श्रेणी": 1637,
      "अभी": 1638,
      "लेबल": 1639,
      "कुल": 1640,
      "भिन्न": 1641,
      "आगे": 1642,
      "पट": 1643,
      "ैति": 1644,
      "भेजने": 1645,
      "वास": 1646,
      "टिप्": 1647,
      "ould": 1648,
      "vin": 1649,
      "सात": 1650,
      "सकती": 1651,
      "condition": 1652,
      "should": 1653,
      "LD": 1654,
      "yp": 1655,
      "ाइन": 1656,
      "ith": 1657,
      "यूआर": 1658,
      "अधिसूचना": 1659,
      "API": 1660,
      "विन": 1661,
      "तै": 1662,
      "france": 1663,
      "ox": 1664,
      "दिखाया": 1665,
      "आईडी": 1666,
      "मिनट": 1667,
      "ul": 1668,
      "चुने": 1669,
      "tle": 1670,
      "लेष": 1671,
      "विश्लेष": 1672,
      "eur": 1673,
      "ww": 1674,
      "ैर": 1675,
      "प्रविष्टि": 1676,
      "सामग्री": 1677,
      "सप्ताह": 1678,
      "नियत": 1679,
      "चलाएँ": 1680,
      "मूल": 1681,
      "जुड़": 1682,
      "ड्राइ": 1683,
      "संकेत": 1684,
      "बॉक्स": 1685,
      "सेवा": 1686,
      "सिस्टम": 1687,
      "्यूल": 1688,
      "श्री": 1689,
      "तैया": 1690,
      "rica": 1691,
      "भंड": 1692,
      "रेशन": 1693,
      "भंडार": 1694,
      "ख़": 1695,
      "र्म": 1696,
      "हरण": 1697,
      "व्यक्ति": 1698,
      "दिखाने": 1699,
      "ist": 1700,
      "चित्र": 1701,
      "छापें": 1702,
      "न्यूनतम": 1703,
      "ैतिज": 1704,
      "ेशन": 1705,
      "स्मारक": 1706,
      "पुस्तक": 1707,
      "LDAP": 1708,
      "घं": 1709,
      "प्रका": 1710,
      "चुना": 1711,
      "URL": 1712,
      "ting": 1713,
      "हुए": 1714,
      "पढ़ने": 1715,
      "ISO": 1716,
      "Re": 1717,
      "खी": 1718,
      "स्ट्रिंग": 1719,
      "उदाहरण": 1720,
      "निर्मित": 1721,
      "लेखक": 1722,
      "वरीयता": 1723,
      "लगा": 1724,
      "lami": 1725,
      "ravi": 1726,
      "ratlami": 1727,
      "raviratlami": 1728,
      "गंत": 1729,
      "निंग": 1730,
      "पाने": 1731,
      "hoo": 1732,
      "जांचें": 1733,
      "unit": 1734,
      "टर्": 1735,
      "माउस": 1736,
      "ly": 1737,
      "क्यों": 1738,
      "उत्तर": 1739,
      "दूरस्थ": 1740,
      "अब": 1741,
      "कारण": 1742,
      "मेन्यू": 1743,
      "मोट": 1744,
      "बिं": 1745,
      "bel": 1746,
      "पूर्वक": 1747,
      "टिप्प": 1748,
      "POP": 1749,
      "अनुस्मारक": 1750,
      "क्योंकि": 1751,
      "आग्रह": 1752,
      "थमि": 1753,
      "मक": 1754,
      "dow": 1755,
      "सकताः": 1756,
      "प्राथमि": 1757,
      "MS": 1758,
      "सफलता": 1759,
      "तरह": 1760,
      "ahoo": 1761,
      "काम": 1762,
      "जाल": 1763,
      "सहेजने": 1764,
      "पुरा": 1765,
      "HE": 1766,
      "Th": 1767,
      "झा": 1768,
      "क्षैतिज": 1769,
      "mail": 1770,
      "प्रेषित": 1771,
      "जरूरत": 1772,
      "तर्क": 1773,
      "फै": 1774,
      "बद्ध": 1775,
      "शील": 1776,
      "BAR": 1777,
      "ss": 1778,
      "थम": 1779,
      "नCity": 1780,
      "बड़ा": 1781,
      "रिमोट": 1782,
      "अनुक्रिया": 1783,
      "भाषित": 1784,
      "लंब": 1785,
      "वार": 1786,
      "टिप्पणी": 1787,
      "icen": 1788,
      "रखता": 1789,
      "IMAP": 1790,
      "Generic": 1791,
      "पॉप": 1792,
      "अलग": 1793,
      "ग्": 1794,
      "ver": 1795,
      "पैरा": 1796,
      "CD": 1797,
      "int": 1798,
      "ऊँ": 1799,
      "ऑन": 1800,
      "देखने": 1801,
      "ublic": 1802,
      "गंतव्य": 1803,
      "लिंग": 1804,
      "ess": 1805,
      "डालें": 1806,
      "स्टो": 1807,
      "म्प": 1808,
      "ऊँचाई": 1809,
      "स्पे": 1810,
      "प्रभाव": 1811,
      "हाल": 1812,
      "gu": 1813,
      "निवेद": 1814,
      "फ्रे": 1815,
      "icense": 1816,
      "मह": 1817,
      "बनाया": 1818,
      "अनुप": 1819,
      "मानक": 1820,
      "होस्ट": 1821,
      "star": 1822,
      "ेषित": 1823,
      "चैनल": 1824,
      "अग्रेषित": 1825,
      "License": 1826,
      "¤": 1827,
      "भु": 1828,
      "लैंड": 1829,
      "स्लाइ": 1830,
      "रोकें": 1831,
      "अपना": 1832,
      "नियंत्रण": 1833,
      "प्रश": 1834,
      "88": 1835,
      "हों": 1836,
      "indow": 1837,
      "तैयार": 1838,
      "ंकर": 1839,
      "छे": 1840,
      "लर": 1841,
      "इंटर": 1842,
      "मौज़ूदा": 1843,
      "provin": 1844,
      "कैश": 1845,
      "श्रोत": 1846,
      "साइट": 1847,
      "मूल्य": 1848,
      "एट": 1849,
      "UT": 1850,
      "रह": 1851,
      "सौ": 1852,
      "हरी": 1853,
      "ूल": 1854,
      "AD": 1855,
      "फु": 1856,
      "कार्या": 1857,
      "menu": 1858,
      "ext": 1859,
      "8859": 1860,
      "सवां": 1861,
      "कोडिंग": 1862,
      "jec": 1863,
      "og": 1864,
      "tw": 1865,
      "पश्": 1866,
      "रविश": 1867,
      "ंगे": 1868,
      "श्रीवास्तव": 1869,
      "रविशंकर": 1870,
      "अप्र": 1871,
      "अनुसार": 1872,
      "बरसात": 1873,
      "सफलतापूर्वक": 1874,
      "ऑफल": 1875,
      "रेखा": 1876,
      "पैके": 1877,
      "पैरामी": 1878,
      "ऑफलाइन": 1879,
      "Ser": 1880,
      "भव": 1881,
      "ांक": 1882,
      "erm": 1883,
      "han": 1884,
      "व्": 1885,
      "संक्रिया": 1886,
      "संशो": 1887,
      "ind": 1888,
      "HEAD": 1889,
      "ीक": 1890,
      "सारे": 1891,
      "तुल्यकाल": 1892,
      "You": 1893,
      "तत्व": 1894,
      "वित": 1895,
      "बिल्ड": 1896,
      "MAIL": 1897,
      "ऑनलाइन": 1898,
      "ha": 1899,
      "up": 1900,
      "क्यू": 1901,
      "संजाल": 1902,
      "रेक्": 1903,
      "lib": 1904,
      "र्ड": 1905,
      "होना": 1906,
      "रूपा": 1907,
      "परिणा": 1908,
      "ree": 1909,
      "परिणाम": 1910,
      "धी": 1911,
      "ेस": 1912,
      "खाते": 1913,
      "ंतरण": 1914,
      "विश्लेषण": 1915,
      "प्रश्न": 1916,
      "dis": 1917,
      "मध्य": 1918,
      "किना": 1919,
      "बाक्स": 1920,
      "बहुत": 1921,
      "min": 1922,
      "संपर्": 1923,
      "बेस": 1924,
      "एच": 1925,
      "नर": 1926,
      "गीत": 1927,
      "फ्लैग्स": 1928,
      "MAPI": 1929,
      "gion": 1930,
      "ine": 1931,
      "aol": 1932,
      "mat": 1933,
      "कड़ी": 1934,
      "प्रि": 1935,
      "चैट": 1936,
      "ड्राइव": 1937,
      "CS": 1938,
      "समाप्ति": 1939,
      "नियम": 1940,
      "असफलः": 1941,
      "अवधि": 1942,
      "spa": 1943,
      "पर्": 1944,
      "क्रो": 1945,
      "परिवर्": 1946,
      "पिक": 1947,
      "चालू": 1948,
      "translated": 1949,
      "IT": 1950,
      "bjec": 1951,
      "how": 1952,
      "स्वा": 1953,
      "try": 1954,
      "इनपुट": 1955,
      "lea": 1956,
      "africa": 1957,
      "title": 1958,
      "स्कै": 1959,
      "प्रविष्ट": 1960,
      "EMAIL": 1961,
      "Uri": 1962,
      "IME": 1963,
      "DV": 1964,
      "र्मे": 1965,
      "लिपि": 1966,
      "बदले": 1967,
      "चिप": 1968,
      "ट्रा": 1969,
      "त्याशित": 1970,
      "istan": 1971,
      "नक्": 1972,
      "जावा": 1973,
      "टेड": 1974,
      "छोटा": 1975,
      "फं": 1976,
      "संभव": 1977,
      "org": 1978,
      "परिभाषित": 1979,
      "item": 1980,
      "sy": 1981,
      "गह": 1982,
      "डिया": 1983,
      "पिक्से": 1984,
      "Cal": 1985,
      "Lex": 1986,
      "ab": 1987,
      "cri": 1988,
      "कक्ष": 1989,
      "ाइट": 1990,
      "संपी": 1991,
      "lex": 1992,
      "कैमरा": 1993,
      "Serv": 1994,
      "संपर्कों": 1995,
      "UriServ": 1996,
      "LexUriServ": 1997,
      "MIME": 1998,
      "जाँचें": 1999,
      "दहला": 2000,
      "वर्तनी": 2001,
      "ज़ूम": 2002,
      "कॉन्फ़िगर": 2003,
      "In": 2004,
      "ल्यू": 2005,
      "time": 2006,
      "सहेजा": 2007,
      "महत्व": 2008,
      "lease": 2009,
      "¤·": 2010,
      "आने": 2011,
      "धिकार": 2012,
      "ateg": 2013,
      "ype": 2014,
      "col": 2015,
      "pr": 2016,
      "¤¥": 2017,
      "translate": 2018,
      "ड़े": 2019,
      "रेख": 2020,
      "crip": 2021,
      "कोण": 2022,
      "मिट": 2023,
      "जिसमें": 2024,
      "लंबा": 2025,
      "पैकेज": 2026,
      "10": 2027,
      "रित": 2028,
      "वो": 2029,
      "सकी": 2030,
      "दर्भ": 2031,
      "फ्ट": 2032,
      "GenericName": 2033,
      "अप्रत्याशित": 2034,
      "चाहता": 2035,
      "state": 2036,
      "ip": 2037,
      "ठीक": 2038,
      "फर": 2039,
      "वृत्": 2040,
      "स्टा": 2041,
      "्यस्त": 2042,
      "वर्सन": 2043,
      "विन्यस्त": 2044,
      "par": 2045,
      "लकी": 2046,
      "दिखाना": 2047,
      "ser": 2048,
      "aly": 2049,
      "सबवर्सन": 2050,
      "निकालें": 2051,
      "ज्यादा": 2052,
      "पॉपअप": 2053,
      "ategory": 2054,
      "New": 2055,
      "पश": 2056,
      "पेज": 2057,
      "ीय": 2058,
      "ैश": 2059,
      "अल्": 2060,
      "चेक": 2061,
      "अंतरा": 2062,
      "गणना": 2063,
      "कभी": 2064,
      "तारी": 2065,
      "सेकेंड": 2066,
      "सां": 2067,
      "प्रतिलिपि": 2068,
      "बर्निंग": 2069,
      "ब्रेक": 2070,
      "आवश्यक": 2071,
      "प्राथमिकता": 2072,
      "eb": 2073,
      "पाई": 2074,
      "वेयर": 2075,
      "चिपका": 2076,
      "uer": 2077,
      "बगल": 2078,
      "क्षण": 2079,
      "फोटो": 2080,
      "प्रबंधन": 2081,
      "ghan": 2082,
      "tk": 2083,
      "भो": 2084,
      "आपकी": 2085,
      "afghan": 2086,
      "afghanistan": 2087,
      "SSL": 2088,
      "वत": 2089,
      "italy": 2090,
      "संकेतक": 2091,
      "ब्राउज़र": 2092,
      "टर्मिन": 2093,
      "file": 2094,
      "na": 2095,
      "प्रत्य": 2096,
      "label": 2097,
      "वर्ष": 2098,
      "टर्मिनल": 2099,
      "ऊं": 2100,
      "माइ": 2101,
      "मुले": 2102,
      "डेलि": 2103,
      "प्रोटो": 2104,
      "ission": 2105,
      "ermission": 2106,
      "रेक्ट्री": 2107,
      "wh": 2108,
      "गुप्त": 2109,
      "ऊंचाई": 2110,
      "Please": 2111,
      "फॉ": 2112,
      "व्या": 2113,
      "करू": 2114,
      "हैंः": 2115,
      "छवियों": 2116,
      "out": 2117,
      "रखना": 2118,
      "णाकर": 2119,
      "मॉड": 2120,
      "स्टोर": 2121,
      "तब": 2122,
      "ent": 2123,
      "घटक": 2124,
      "उन्हें": 2125,
      "फंक्शन": 2126,
      "पिक्सेल": 2127,
      "आइ": 2128,
      "आज": 2129,
      "ऐसे": 2130,
      "जगह": 2131,
      "बता": 2132,
      "वट": 2133,
      "क्षा": 2134,
      "क्षि": 2135,
      "उपभो": 2136,
      "सिक": 2137,
      "एनकोडिंग": 2138,
      "General": 2139,
      "GNU": 2140,
      "उपभोक्ता": 2141,
      "kt": 2142,
      "lo": 2143,
      "जोड़ना": 2144,
      "टाइप": 2145,
      "लकीर": 2146,
      "गैर": 2147,
      "मना": 2148,
      "ीकरण": 2149,
      "बाहरी": 2150,
      "सेंस": 2151,
      "ब्रेरी": 2152,
      "अंतर्वस्तु": 2153,
      "with": 2154,
      "संभाव": 2155,
      "देने": 2156,
      "उपयोगकर्ता": 2157,
      "कॉन्फ़िगरेशन": 2158,
      "फ्रेम": 2159,
      "Public": 2160,
      "ग्न": 2161,
      "रु": 2162,
      "वार्ता": 2163,
      "डिरेक्ट्री": 2164,
      "लाइसेंस": 2165,
      "सेटअप": 2166,
      "भेजना": 2167,
      "नोम": 2168,
      "DVD": 2169,
      "ug": 2170,
      "रॉ": 2171,
      "कार्यों": 2172,
      "निर्यात": 2173,
      "ermissions": 2174,
      "Permissions": 2175,
      "ton": 2176,
      "ऐसा": 2177,
      "लां": 2178,
      "usa": 2179,
      "जायेगा": 2180,
      "zil": 2181,
      "इसमें": 2182,
      "च्च": 2183,
      "खींच": 2184,
      "ail": 2185,
      "um": 2186,
      "डॉ": 2187,
      "समान": 2188,
      "पूल": 2189,
      "सहेजना": 2190,
      "action": 2191,
      "यूआरएल": 2192,
      "घंटे": 2193,
      "चीनी": 2194,
      "europ": 2195,
      "ON": 2196,
      "ig": 2197,
      "हार": 2198,
      "संत": 2199,
      "एंटर": 2200,
      "पूछें": 2201,
      "करूणाकर": 2202,
      "ble": 2203,
      "पिछले": 2204,
      "Coun": 2205,
      "tar": 2206,
      "अर": 2207,
      "देगा": 2208,
      "घुमाएँ": 2209,
      "भुज": 2210,
      "tor": 2211,
      "va": 2212,
      "मिटाने": 2213,
      "दोहरा": 2214,
      "HTTP": 2215,
      "आवा": 2216,
      "इमेज": 2217,
      "one": 2218,
      "मिली": 2219,
      "सूचक": 2220,
      "नामकरण": 2221,
      "रिपोर्ट": 2222,
      "वर्क": 2223,
      "सिमुले": 2224,
      "oftw": 2225,
      "oftware": 2226,
      "चना": 2227,
      "रिलिक": 2228,
      "मौसम": 2229,
      "टेक्स": 2230,
      "गेट": 2231,
      "सुनिश्चित": 2232,
      "बरफ": 2233,
      "संदर्भ": 2234,
      "ग्रे": 2235,
      "older": 2236,
      "NA": 2237,
      "स्को": 2238,
      "दिव": 2239,
      "बनाए": 2240,
      "IP": 2241,
      "if": 2242,
      "पन्न": 2243,
      "स्पूल": 2244,
      "दिए": 2245,
      "मुक्त": 2246,
      "लाइब्रेरी": 2247,
      "bject": 2248,
      "¤§": 2249,
      "इका": 2250,
      "उल": 2251,
      "प्रयोक्ता": 2252,
      "दिशा": 2253,
      "साइरिलिक": 2254,
      "प्रकाशित": 2255,
      "indows": 2256,
      "NAME": 2257,
      "you": 2258,
      "ॉल": 2259,
      "तार": 2260,
      "विरो": 2261,
      "छवियाँ": 2262,
      "सिं": 2263,
      "ard": 2264,
      "कंप": 2265,
      "स्केल": 2266,
      "मसौ": 2267,
      "edit": 2268,
      "डिबगर": 2269,
      "Mee": 2270,
      "कौ": 2271,
      "काश": 2272,
      "याप्त": 2273,
      "सेक": 2274,
      "escrip": 2275,
      "शाह": 2276,
      "निर्देशांक": 2277,
      "कनेक्ट": 2278,
      "mbol": 2279,
      "Meeting": 2280,
      "escription": 2281,
      "वन": 2282,
      "मार्": 2283,
      "लेखन": 2284,
      "बढ़ा": 2285,
      "गपश": 2286,
      "डू": 2287,
      "लड़ी": 2288,
      "र्व": 2289,
      "संग्र": 2290,
      "दान": 2291,
      "लेंडर": 2292,
      "पिछली": 2293,
      "गपशप": 2294,
      "ओर": 2295,
      "भर": 2296,
      "परिवर्धित": 2297,
      "वृत्त": 2298,
      "Country": 2299,
      "ay": 2300,
      "age": 2301,
      "टः": 2302,
      "ठा": 2303,
      "यम": 2304,
      "ताला": 2305,
      "कैलेंडर": 2306,
      "संशोधन": 2307,
      "symbol": 2308,
      "छपाई": 2309,
      "हां": 2310,
      "ज़ा": 2311,
      "ad": 2312,
      "box": 2313,
      "¤": 2314,
      "सके": 2315,
      "संसा": 2316,
      "अनुमतियाँ": 2317,
      "¤": 2318,
      "पद": 2319,
      "समाचार": 2320,
      "एंपे": 2321,
      "दोष": 2322,
      "स्वीकारें": 2323,
      "सरल": 2324,
      "एंपेथी": 2325,
      "gra": 2326,
      "¤£": 2327,
      "रचना": 2328,
      "वाई": 2329,
      "अद्यतनी": 2330,
      "125": 2331,
      "एक्": 2332,
      "खंड": 2333,
      "निया": 2334,
      "तिक": 2335,
      "EN": 2336,
      "गम": 2337,
      "गिन": 2338,
      "जन्": 2339,
      "क्की": 2340,
      "मेंट": 2341,
      "क्रे": 2342,
      "दिखाई": 2343,
      "format": 2344,
      "गनोम": 2345,
      "डाय": 2346,
      "चुनेंः": 2347,
      "Imp": 2348,
      "rar": 2349,
      "कम्प": 2350,
      "क्ला": 2351,
      "लिखना": 2352,
      "जन्म": 2353,
      "EX": 2354,
      "काटें": 2355,
      "खिला": 2356,
      "आधारित": 2357,
      "औजारपट्टी": 2358,
      "मसौदा": 2359,
      "Mac": 2360,
      "अंक": 2361,
      "लाप": 2362,
      "साझा": 2363,
      "tri": 2364,
      "बैकेंड": 2365,
      "प्रदर्शन": 2366,
      "डोमेन": 2367,
      "धु": 2368,
      "र्घ": 2369,
      "til": 2370,
      "et": 2371,
      "असमर्थित": 2372,
      "आशा": 2373,
      "घर": 2374,
      "तरी": 2375,
      "नये": 2376,
      "विडियो": 2377,
      "रिंग": 2378,
      "दीर्घ": 2379,
      "चलाने": 2380,
      "एमएल": 2381,
      "निवेदित": 2382,
      "Category": 2383,
      "आम": 2384,
      "गाडू": 2385,
      "अगले": 2386,
      "mage": 2387,
      "हिस्": 2388,
      "बादशाह": 2389,
      "लंबवत": 2390,
      "CategoryName": 2391,
      "ION": 2392,
      "थन": 2393,
      "बजाएँ": 2394,
      "स्क्रॉल": 2395,
      "चुका": 2396,
      "आवृत्": 2397,
      "घुमाव": 2398,
      "जायेगी": 2399,
      "The": 2400,
      "संपीड": 2401,
      "महत्वपूर्ण": 2402,
      "आवृत्ति": 2403,
      "स्वि": 2404,
      "30": 2405,
      "util": 2406,
      "रूट": 2407,
      "जिन": 2408,
      "जबतक": 2409,
      "ely": 2410,
      "वस्तुओं": 2411,
      "अंतराल": 2412,
      "चिपकाएँ": 2413,
      "नों": 2414,
      "ृत": 2415,
      "ेक": 2416,
      "विजे": 2417,
      "स्कैन": 2418,
      "yahoo": 2419,
      "प्रगति": 2420,
      "शिष्ट": 2421,
      "अंदर": 2422,
      "विशेषता": 2423,
      "जन्मदिन": 2424,
      "use": 2425,
      "अल": 2426,
      "झे": 2427,
      "मेटा": 2428,
      "एकल": 2429,
      "पीछे": 2430,
      "पेटी": 2431,
      "वार्तालाप": 2432,
      "जायें": 2433,
      "किंग": 2434,
      "बाजू": 2435,
      "्यूटर": 2436,
      "छाँ": 2437,
      "बदलने": 2438,
      "province": 2439,
      "तारीख़": 2440,
      "italyprovince": 2441,
      "करूणाकरEMAIL": 2442,
      "कित": 2443,
      "�\\": 2444,
      "स्थि": 2445,
      "इसका": 2446,
      "संसाधन": 2447,
      "ue": 2448,
      "स्या": 2449,
      "रिया": 2450,
      "अनुक्रम": 2451,
      "लिखित": 2452,
      "स्वीकृत": 2453,
      "रखने": 2454,
      "पैरामीटर": 2455,
      "दन": 2456,
      "दार": 2457,
      "ania": 2458,
      "दर्शी": 2459,
      "शब्दकूट": 2460,
      "प्रस्थिति": 2461,
      "हाशिया": 2462,
      "त्रि": 2463,
      "GP": 2464,
      "ation": 2465,
      "उन्न": 2466,
      "गू": 2467,
      "सन्": 2468,
      "यां": 2469,
      "संग्रह": 2470,
      "सार्व": 2471,
      "सत्यापित": 2472,
      "app": 2473,
      "अद्यतनीकृत": 2474,
      "iCal": 2475,
      "ँचा": 2476,
      "आय": 2477,
      "टरी": 2478,
      "ort": 2479,
      "arch": 2480,
      "सेंट": 2481,
      "जैसा": 2482,
      "www": 2483,
      "IC": 2484,
      "her": 2485,
      "ph": 2486,
      "आकाश": 2487,
      "गें": 2488,
      "टर्स": 2489,
      "तों": 2490,
      "बम": 2491,
      "देखा": 2492,
      "जोड़े": 2493,
      "वस्तुएँ": 2494,
      "नेटवर्क": 2495,
      "पाइंट": 2496,
      "Region": 2497,
      "लंबाई": 2498,
      "ST": 2499,
      "su": 2500,
      "दक्षि": 2501,
      "विभा": 2502,
      "नेरिक": 2503,
      "2001": 2504,
      "दूसरा": 2505,
      "प्रत्येक": 2506,
      "सिमुलेशन": 2507,
      "ERS": 2508,
      "बर्फ": 2509,
      "सादा": 2510,
      "needs": 2511,
      "elp": 2512,
      "लॉक": 2513,
      "button": 2514,
      "मुद्रित": 2515,
      "OR": 2516,
      "VERS": 2517,
      "जित": 2518,
      "विशिष्ट": 2519,
      "फ़्": 2520,
      "नियाई": 2521,
      "मिटाया": 2522,
      "rarely": 2523,
      "VERSION": 2524,
      "CMS": 2525,
      "चरण": 2526,
      "लना": 2527,
      "स्का": 2528,
      "मेमो": 2529,
      "प्राक्सी": 2530,
      "डाटाबेस": 2531,
      "पश्चा": 2532,
      "SM": 2533,
      "per": 2534,
      "स्पै": 2535,
      "प्रथम": 2536,
      "खाका": 2537,
      "ana": 2538,
      "lay": 2539,
      "समायोज": 2540,
      "विकल्पः": 2541,
      "मोड्यूल": 2542,
      "प्रेषण": 2543,
      "tool": 2544,
      "लॉगिन": 2545,
      "ताश": 2546,
      "डियन": 2547,
      "दिखाएं": 2548,
      "वीकार्ड": 2549,
      "अपनी": 2550,
      "सुधार": 2551,
      "आरंभिक": 2552,
      "ook": 2553,
      "अग्रसार": 2554,
      "अनुपस्थित": 2555,
      "डेलिगेट": 2556,
      "gle": 2557,
      "ंध": 2558,
      "ऑफ": 2559,
      "पल": 2560,
      "सत": 2561,
      "सत्ता": 2562,
      "समस्या": 2563,
      "टिका": 2564,
      "अनुवाद": 2565,
      "ष्ठा": 2566,
      "म्भ": 2567,
      "र्मेट": 2568,
      "सेकण्ड": 2569,
      "जनिक": 2570,
      "तेज": 2571,
      "वाइ": 2572,
      "त्म": 2573,
      "निर्माण": 2574,
      "ंतरित": 2575,
      "व्यव": 2576,
      "list": 2577,
      "जनक": 2578,
      "निम्नलिखित": 2579,
      "सार्वजनिक": 2580,
      "SMTP": 2581,
      "gtk": 2582,
      "कस": 2583,
      "खण्ड": 2584,
      "रं": 2585,
      "होगी": 2586,
      "स्तम्भ": 2587,
      "प्रोफ़ाइल": 2588,
      "प्रतीक्षा": 2589,
      "मौसमः": 2590,
      "coun": 2591,
      "ial": 2592,
      "text": 2593,
      "उसे": 2594,
      "डब": 2595,
      "पत्ता": 2596,
      "लय": 2597,
      "शेष": 2598,
      "विनिम": 2599,
      "ोल्ड": 2600,
      "बायाँ": 2601,
      "गयाः": 2602,
      "आकारः": 2603,
      "पेट": 2604,
      "पहुंच": 2605,
      "बिंदु": 2606,
      "UTF": 2607,
      "संग्रहित": 2608,
      "आमंत्र": 2609,
      "im": 2610,
      "एल्": 2611,
      "कर्स": 2612,
      "हल": 2613,
      "हल्": 2614,
      "ियों": 2615,
      "this": 2616,
      "rep": 2617,
      "लुक": 2618,
      "वर्षगा": 2619,
      "Windows": 2620,
      "शॉ": 2621,
      "बाध्य": 2622,
      "भागी": 2623,
      "तुर्": 2624,
      "पठित": 2625,
      "नक्शे": 2626,
      "ava": 2627,
      "cd": 2628,
      "यल": 2629,
      "क्टेड": 2630,
      "पानी": 2631,
      "सूचित": 2632,
      "मीडिया": 2633,
      "बिंब": 2634,
      "pre": 2635,
      "संकुल": 2636,
      "किगा": 2637,
      "ece": 2638,
      "स्थिर": 2639,
      "ution": 2640,
      "अट्": 2641,
      "आता": 2642,
      "नु": 2643,
      "रीसेट": 2644,
      "जोड़ा": 2645,
      "सहेजी": 2646,
      "पीय": 2647,
      "रंगः": 2648,
      "विनिमय": 2649,
      "TL": 2650,
      "gre": 2651,
      "आस्ट्र": 2652,
      "ेंज": 2653,
      "क्टर": 2654,
      "क्लाइ": 2655,
      "संरचना": 2656,
      "यूनि": 2657,
      "बनाना": 2658,
      "घुसा": 2659,
      "बजाय": 2660,
      "कौन": 2661,
      "डबल्यू": 2662,
      "Free": 2663,
      "Image": 2664,
      "OME": 2665,
      "वाकई": 2666,
      "उपनाम": 2667,
      "सहभागी": 2668,
      "atus": 2669,
      "समयः": 2670,
      "ढूँ": 2671,
      "संगठ": 2672,
      "apan": 2673,
      "पुराने": 2674,
      "gedit": 2675,
      "ऑपर": 2676,
      "डिफ": 2677,
      "सिटी": 2678,
      "ब्रू": 2679,
      "अधिष्ठा": 2680,
      "आवश्यकता": 2681,
      "एचटी": 2682,
      "mo": 2683,
      "¤": 2684,
      "कमिट": 2685,
      "गि": 2686,
      "विले": 2687,
      "परी": 2688,
      "सीवी": 2689,
      "श्विक": 2690,
      "वैश्विक": 2691,
      "सुरक्षा": 2692,
      "धान": 2693,
      "क्लाइंट": 2694,
      "सीवीएस": 2695,
      "ंठ": 2696,
      "ंभी": 2697,
      "ऑब्": 2698,
      "सरण": 2699,
      "ोता": 2700,
      "ताज़ा": 2701,
      "अनुसरण": 2702,
      "off": 2703,
      "user": 2704,
      "यूरोपीय": 2705,
      "भूमिका": 2706,
      "कार्यालय": 2707,
      "ogl": 2708,
      "symbols": 2709,
      "खिलाड़ी": 2710,
      "रंजन": 2711,
      "Description": 2712,
      "nu": 2713,
      "red": 2714,
      "आर्": 2715,
      "केतिक": 2716,
      "ond": 2717,
      "सान": 2718,
      "स्टर": 2719,
      "सिंग": 2720,
      "ट्रि": 2721,
      "स्ट्री": 2722,
      "पुनर्नामकरण": 2723,
      "भारी": 2724,
      "टाइम": 2725,
      "सांकेतिक": 2726,
      "पश्चात": 2727,
      "वर्षगांठ": 2728,
      "Software": 2729,
      "help": 2730,
      "ज्य": 2731,
      "ेंट": 2732,
      "्रवाई": 2733,
      "कार्रवाई": 2734,
      "बदला": 2735,
      "direc": 2736,
      "संगत": 2737,
      "day": 2738,
      "tribut": 2739,
      "विजेट": 2740,
      "cu": 2741,
      "कट": 2742,
      "दायाँ": 2743,
      "परिवर्तित": 2744,
      "स्लाइड": 2745,
      "CE": 2746,
      "japan": 2747,
      "एफ": 2748,
      "एन्": 2749,
      "रही": 2750,
      "उपस्थिति": 2751,
      "दिखाता": 2752,
      "roup": 2753,
      "त्मक": 2754,
      "बारी": 2755,
      "जिससे": 2756,
      "dation": 2757,
      "For": 2758,
      "des": 2759,
      "मासिक": 2760,
      "बांट": 2761,
      "हस्ताक्षरित": 2762,
      "path": 2763,
      "दबाएँ": 2764,
      "तुल्यकालित": 2765,
      "Cogl": 2766,
      "एपी": 2767,
      "खु": 2768,
      "खरा": 2769,
      "संरेख": 2770,
      "मेक": 2771,
      "esh": 2772,
      "search": 2773,
      "आयातक": 2774,
      "उपयोक्तानाम": 2775,
      "आउटलुक": 2776,
      "mbox": 2777,
      "सॉफ्ट": 2778,
      "GNOME": 2779,
      "संबंधित": 2780,
      "पर्याप्त": 2781,
      "संपीडित": 2782,
      "iv": 2783,
      "pl": 2784,
      "पत्": 2785,
      "लिन": 2786,
      "लों": 2787,
      "oundation": 2788,
      "भंडारण": 2789,
      "किनारा": 2790,
      "गूगल": 2791,
      "IS": 2792,
      "iz": 2793,
      "इसकी": 2794,
      "चुनने": 2795,
      "iCalImp": 2796,
      "19": 2797,
      "ain": 2798,
      "गये": 2799,
      "पक": 2800,
      "हवां": 2801,
      "ेलिया": 2802,
      "स्की": 2803,
      "विस्त": 2804,
      "डेड": 2805,
      "देखना": 2806,
      "ktop": 2807,
      "धुंध": 2808,
      "कर्सर": 2809,
      "एक्से": 2810,
      "समे": 2811,
      "दाहि": 2812,
      "बान": 2813,
      "asia": 2814,
      "भारित": 2815,
      "विस्तृत": 2816,
      "23": 2817,
      "Folder": 2818,
      "Res": 2819,
      "iB": 2820,
      "उभार": 2821,
      "चम": 2822,
      "लौ": 2823,
      "माध्य": 2824,
      "निर": 2825,
      "लाम": 2826,
      "गुम": 2827,
      "अगली": 2828,
      "श्रोता": 2829,
      "set": 2830,
      "कुंजीपट": 2831,
      "माध्यम": 2832,
      "Yahoo": 2833,
      "एआर": 2834,
      "गार": 2835,
      "लघु": 2836,
      "निकाल": 2837,
      "पहला": 2838,
      "जेश": 2839,
      "चुनी": 2840,
      "spain": 2841,
      "HA": 2842,
      "eu": 2843,
      "find": 2844,
      "lin": 2845,
      "mm": 2846,
      "बहाल": 2847,
      "कापी": 2848,
      "राजेश": 2849,
      "स्टे": 2850,
      "ary": 2851,
      "गुआ": 2852,
      "जेनेरिक": 2853,
      "प्रतिश": 2854,
      "oogle": 2855,
      "version": 2856,
      "रूपांतरण": 2857,
      "खराब": 2858,
      "11": 2859,
      "क्वे": 2860,
      "लाएँ": 2861,
      "net": 2862,
      "पंजा": 2863,
      "पेक्ष": 2864,
      "ब्राउज़": 2865,
      "आस्ट्रेलिया": 2866,
      "Foundation": 2867,
      "bra": 2868,
      "ka": 2869,
      "एकिगा": 2870,
      "गहरा": 2871,
      "बाइ": 2872,
      "व्यू": 2873,
      "र्य": 2874,
      "क्सा": 2875,
      "मिंग": 2876,
      "ico": 2877,
      "RC": 2878,
      "amp": 2879,
      "cc": 2880,
      "घटा": 2881,
      "डें": 2882,
      "नहला": 2883,
      "नशील": 2884,
      "ियाँ": 2885,
      "करके": 2886,
      "प्रस्तु": 2887,
      "जाती": 2888,
      "ties": 2889,
      "खाँचा": 2890,
      "त्रा": 2891,
      "परिचित": 2892,
      "पादन": 2893,
      "डेवल": 2894,
      "टेनर": 2895,
      "दर्ज": 2896,
      "ill": 2897,
      "सबको": 2898,
      "संभावित": 2899,
      "दिवस": 2900,
      "jesh": 2901,
      "छक्का": 2902,
      "रिथम": 2903,
      "फ़ोल्डरों": 2904,
      "rajesh": 2905,
      "हिब्रू": 2906,
      "उन्नत": 2907,
      "अट्ठा": 2908,
      "50": 2909,
      "ost": 2910,
      "ual": 2911,
      "ंप्ट": 2912,
      "उचित": 2913,
      "प्रांप्ट": 2914,
      "them": 2915,
      "कंपो": 2916,
      "ART": 2917,
      "विश्वास": 2918,
      "एटलां": 2919,
      "तुल्यकालन": 2920,
      "here": 2921,
      "cs": 2922,
      "ces": 2923,
      "od": 2924,
      "मने": 2925,
      "तिक्की": 2926,
      "क्रैश": 2927,
      "dor": 2928,
      "कार्यक्रम": 2929,
      "मेलबॉक्स": 2930,
      "जाएँगी": 2931,
      "फोलो": 2932,
      "गर": 2933,
      "बट": 2934,
      "सीसी": 2935,
      "खोली": 2936,
      "स्थाई": 2937,
      "ecu": 2938,
      "uri": 2939,
      "नियंत्रित": 2940,
      "take": 2941,
      "उभारें": 2942,
      "एटलांटिक": 2943,
      "IB": 2944,
      "object": 2945,
      "अन्": 2946,
      "कल्": 2947,
      "हाइल": 2948,
      "रूपित": 2949,
      "प्राधिकार": 2950,
      "इंडियन": 2951,
      "भंडारित": 2952,
      "ब्रेकपाइंट": 2953,
      "offic": 2954,
      "32001": 2955,
      "IN": 2956,
      "L00": 2957,
      "LEX": 2958,
      "oc": 2959,
      "ड्": 2960,
      "हालिया": 2961,
      "any": 2962,
      "वर्ती": 2963,
      "अनुमान": 2964,
      "translations": 2965,
      "एंट": 2966,
      "हटाने": 2967,
      "प्रकारः": 2968,
      "सदस्य": 2969,
      "europa": 2970,
      "CELEX": 2971,
      "official": 2972,
      "32001L00": 2973,
      "32001L0059": 2974,
      "GT": 2975,
      "PK": 2976,
      "type": 2977,
      "ui": 2978,
      "उल्": 2979,
      "छि": 2980,
      "नष्ट": 2981,
      "स्नि": 2982,
      "केट": 2983,
      "लेट": 2984,
      "वाक्या": 2985,
      "जीवन": 2986,
      "स्थानः": 2987,
      "बेगम": 2988,
      "direct": 2989,
      "प्रतिशत": 2990,
      "स्निपेट": 2991,
      "Web": 2992,
      "imp": 2993,
      "अपरिचित": 2994,
      "ंगर": 2995,
      "दर्शि": 2996,
      "वैकल्": 2997,
      "दूरी": 2998,
      "एक्सप्र": 2999,
      "जिसके": 3000,
      "बहुभुज": 3001,
      "इकाई": 3002,
      "PKCS": 3003,
      "वाक्यांश": 3004,
      "वैकल्पिक": 3005,
      "Send": 3006,
      "SHA": 3007,
      "puer": 3008,
      "इक्का": 3009,
      "म्स": 3010,
      "libgnome": 3011,
      "torico": 3012,
      "स्विच": 3013,
      "puertorico": 3014,
      "Mail": 3015,
      "kde": 3016,
      "इन्": 3017,
      "जंक": 3018,
      "बक्सा": 3019,
      "संवेद": 3020,
      "विध": 3021,
      "मिटाकर": 3022,
      "सहेजे": 3023,
      "अपठ": 3024,
      "status": 3025,
      "प्राप्ति": 3026,
      "लॉन्": 3027,
      "अंतर": 3028,
      "\\\\\\\\": 3029,
      "even": 3030,
      "02i": 3031,
      "वरीयताएँ": 3032,
      "This": 3033,
      "प्रोटोकॉल": 3034,
      "दीर्घा": 3035,
      "जोड़ेगा": 3036,
      "बटण": 3037,
      "दर्शिता": 3038,
      "100": 3039,
      "CV": 3040,
      "File": 3041,
      "US": 3042,
      "kra": 3043,
      "कठ": 3044,
      "दै": 3045,
      "कोरि": 3046,
      "ल्टिक": 3047,
      "देना": 3048,
      "दिना": 3049,
      "लेना": 3050,
      "अपार": 3051,
      "तुलना": 3052,
      "कैसे": 3053,
      "olution": 3054,
      "हस्तांतरण": 3055,
      "इंटरनेट": 3056,
      "फुल": 3057,
      "मॉड्यूल": 3058,
      "घुसाएँ": 3059,
      "चमकी": 3060,
      "Dis": 3061,
      "II": 3062,
      "str": 3063,
      "िकी": 3064,
      "र्न": 3065,
      "लियन": 3066,
      "पाय": 3067,
      "खोला": 3068,
      "स्वय": 3069,
      "शॉर्ट": 3070,
      "directory": 3071,
      "En": 3072,
      "Ex": 3073,
      "¤": 3074,
      "चुनते": 3075,
      "शब्दको": 3076,
      "अनुपलब्ध": 3077,
      "कार्यान्": 3078,
      "गिनती": 3079,
      "मेमोरी": 3080,
      "स्पैम": 3081,
      "listbox": 3082,
      "brazil": 3083,
      "ml": 3084,
      "कला": 3085,
      "जमने": 3086,
      "किस": 3087,
      "लेने": 3088,
      "प्स": 3089,
      "गुलाम": 3090,
      "म्बा": 3091,
      "dir": 3092,
      "पढ़ें": 3093,
      "मैं": 3094,
      "मेजबान": 3095,
      "ढूँढ़": 3096,
      "IBM": 3097,
      "संवेदनशील": 3098,
      "ful": 3099,
      "संसूचक": 3100,
      "जानी": 3101,
      "प्ला": 3102,
      "धिक": 3103,
      "बेल": 3104,
      "क्टरी": 3105,
      "पुनर्प्राप्त": 3106,
      "प्लेयर": 3107,
      "प्रिंट": 3108,
      "अरबी": 3109,
      "आवाज": 3110,
      "सन्देश": 3111,
      "desktop": 3112,
      "दैनिक": 3113,
      "1f": 3114,
      "Sy": 3115,
      "by": 3116,
      "bia": 3117,
      "jha": 3118,
      "निस्": 3119,
      "फ़ाइलः": 3120,
      "उपयुक्त": 3121,
      "बां": 3122,
      "मिटाए": 3123,
      "ombia": 3124,
      "बिट": 3125,
      "chin": 3126,
      "page": 3127,
      "मुद्रण": 3128,
      "colombia": 3129,
      "मनाही": 3130,
      "kajha": 3131,
      "गहराई": 3132,
      "rajeshkajha": 3133,
      "OM": 3134,
      "SS": 3135,
      "अर्थ": 3136,
      "फोर्": 3137,
      "सूचनाएँ": 3138,
      "अंध": 3139,
      "जाएगी": 3140,
      "भूत": 3141,
      "पथः": 3142,
      "mber": 3143,
      "मेनू": 3144,
      "किनारे": 3145,
      "यूनिकोड": 3146,
      "स्ट्रीम": 3147,
      "sc": 3148,
      "ंचा": 3149,
      "कूल": 3150,
      "गै": 3151,
      "जहाँ": 3152,
      "बन": 3153,
      "लब": 3154,
      "सCity": 3155,
      "ong": 3156,
      "लापन": 3157,
      "फ़ाइलनाम": 3158,
      "तीन": 3159,
      "वेस्ट": 3160,
      "घटनाओं": 3161,
      "अवतार": 3162,
      "विरोध": 3163,
      "लौटा": 3164,
      "कंपोजर": 3165,
      "impli": 3166,
      "china": 3167,
      "60": 3168,
      "अखंड": 3169,
      "एला": 3170,
      "एलाग": 3171,
      "कस्टम": 3172,
      "टूल": 3173,
      "नमू": 3174,
      "पनीय": 3175,
      "सृ": 3176,
      "ितीय": 3177,
      "कार्यशील": 3178,
      "कृति": 3179,
      "पुनरा": 3180,
      "chan": 3181,
      "सहायता": 3182,
      "निवेदन": 3183,
      "अल्फा": 3184,
      "अखंडता": 3185,
      "एलागरिथम": 3186,
      "कCity": 3187,
      "चय": 3188,
      "हू": 3189,
      "काफी": 3190,
      "नाइ": 3191,
      "rom": 3192,
      "समयक्षेत्र": 3193,
      "ish": 3194,
      "एलबम": 3195,
      "पठनीय": 3196,
      "ग्नो": 3197,
      "number": 3198,
      "संरेखण": 3199,
      "हाइलाइट": 3200,
      "अपठित": 3201,
      "EO": 3202,
      "Id": 3203,
      "can": 3204,
      "अमान्य": 3205,
      "उच्च": 3206,
      "नॉ": 3207,
      "मही": 3208,
      "mess": 3209,
      "that": 3210,
      "प्राप्तकर्ताओं": 3211,
      "जुड़ने": 3212,
      "provinces": 3213,
      "छाँटें": 3214,
      "अग्रसारित": 3215,
      "नमूना": 3216,
      "UID": 3217,
      "am": 3218,
      "टू": 3219,
      "विविध": 3220,
      "oper": 3221,
      "स्ती": 3222,
      "रीर": 3223,
      "बनाई": 3224,
      "कुकी": 3225,
      "गलती": 3226,
      "eck": 3227,
      "urr": 3228,
      "मूलभूत": 3229,
      "रहने": 3230,
      "तुर्की": 3231,
      "GTK": 3232,
      "AIM": 3233,
      "em": 3234,
      "ted": 3235,
      "नयी": 3236,
      "ाका": 3237,
      "अनुकूल": 3238,
      "चुकी": 3239,
      "दोनों": 3240,
      "छांट": 3241,
      "वेबसाइट": 3242,
      "पढ़ा": 3243,
      "आमंत्रण": 3244,
      "CVS": 3245,
      "MD": 3246,
      "hat": 3247,
      "id": 3248,
      "आंत": 3249,
      "ओवर": 3250,
      "घन": 3251,
      "जक": 3252,
      "रखा": 3253,
      "शं": 3254,
      "ून": 3255,
      "केस": 3256,
      "होकर": 3257,
      "परिक": 3258,
      "चयनक": 3259,
      "ज़ी": 3260,
      "अंटा": 3261,
      "टॉपिक": 3262,
      "बैकए": 3263,
      "word": 3264,
      "भरने": 3265,
      "लॉन्च": 3266,
      "स्वयं": 3267,
      "आंतरिक": 3268,
      "cess": 3269,
      "खत्म": 3270,
      "ोल": 3271,
      "कोटा": 3272,
      "मेलिंग": 3273,
      "फ़ोल्डरः": 3274,
      "बात": 3275,
      "ore": 3276,
      "र्कटिका": 3277,
      "तीस": 3278,
      "बेमेल": 3279,
      "समूही": 3280,
      "प्रबंधित": 3281,
      "बर्न": 3282,
      "च्छे": 3283,
      "बताने": 3284,
      "अंटार्कटिका": 3285,
      "PGP": 3286,
      "sa": 3287,
      "लन": 3288,
      "फ़ो": 3289,
      "जापानी": 3290,
      "स्थापन": 3291,
      "गोपनीय": 3292,
      "econd": 3293,
      "सबसे": 3294,
      "शीर्षकः": 3295,
      "बरसातweather": 3296,
      "TLS": 3297,
      "संगठन": 3298,
      "google": 3299,
      "war": 3300,
      "ढा": 3301,
      "कालिक": 3302,
      "मेंटेनर": 3303,
      "मात्रा": 3304,
      "ड़ें": 3305,
      "साप्ता": 3306,
      "संदेशः": 3307,
      "राम": 3308,
      "opy": 3309,
      "inmenu": 3310,
      "वीसीडी": 3311,
      "हिक": 3312,
      "उत्पन्न": 3313,
      "बदलना": 3314,
      "मतलब": 3315,
      "उलटें": 3316,
      "कम्प्यूटर": 3317,
      "दिनांक": 3318,
      "चमकीलापन": 3319,
      "message": 3320,
      "साप्ताहिक": 3321,
      "नकल": 3322,
      "बफर": 3323,
      "प्रवास": 3324,
      "विए": 3325,
      "माह": 3326,
      "लाने": 3327,
      "नामी": 3328,
      "ट्रे": 3329,
      "छिपा": 3330,
      "पायथन": 3331,
      "अंधड़": 3332,
      "्रे": 3333,
      "रिए": 3334,
      "पूरी": 3335,
      "विंडोज़": 3336,
      "टेप": 3337,
      "हटाना": 3338,
      "हटाएं": 3339,
      "conf": 3340,
      "पैरामीटर्स": 3341,
      "Quer": 3342,
      "Type": 3343,
      "cal": 3344,
      "ir": 3345,
      "sou": 3346,
      "ty": 3347,
      "आरेख": 3348,
      "बू": 3349,
      "र्द": 3350,
      "नेवि": 3351,
      "पाए": 3352,
      "टिव": 3353,
      "दाएँ": 3354,
      "वर्गी": 3355,
      "दिखानी": 3356,
      "बनावट": 3357,
      "ज़े": 3358,
      "एवं": 3359,
      "see": 3360,
      "पुस्तकचिह्न": 3361,
      "स्वागत": 3362,
      "संतृ": 3363,
      "ड्डी": 3364,
      "कोरियाई": 3365,
      "Query": 3366,
      "45": 3367,
      "96": 3368,
      "Ac": 3369,
      "TY": 3370,
      "एफ़": 3371,
      "मों": 3372,
      "होती": 3373,
      "सीमित": 3374,
      "लोग": 3375,
      "रेट": 3376,
      "बदली": 3377,
      "नियमित": 3378,
      "संख्याः": 3379,
      "मीटर": 3380,
      "रहेगा": 3381,
      "zilla": 3382,
      "दारी": 3383,
      "php": 3384,
      "एचटीएमएल": 3385,
      "pathy": 3386,
      "CK": 3387,
      "ms": 3388,
      "रिकार्ड": 3389,
      "बीज": 3390,
      "मिलाएं": 3391,
      "सकेगी": 3392,
      "हिस्सा": 3393,
      "दक्षिणी": 3394,
      "शब्दकोश": 3395,
      "Str": 3396,
      "See": 3397,
      "ix": 3398,
      "आवरण": 3399,
      "ध्या": 3400,
      "भरा": 3401,
      "लने": 3402,
      "ॉट": 3403,
      "फ़ी": 3404,
      "पुष्टि": 3405,
      "पारदर्शी": 3406,
      "सोल": 3407,
      "लगाएँ": 3408,
      "फुहार": 3409,
      "जावास्क्रिप्ट": 3410,
      "about": 3411,
      "nautil": 3412,
      "माइक्रो": 3413,
      "एक्सप्रेशन": 3414,
      "nautilus": 3415,
      "20": 3416,
      "book": 3417,
      "चव्": 3418,
      "ठहरा": 3419,
      "दस्ती": 3420,
      "पब्": 3421,
      "बचा": 3422,
      "सूट": 3423,
      "भीतर": 3424,
      "निर्गत": 3425,
      "process": 3426,
      "डाकपेटी": 3427,
      "हेडर": 3428,
      "ग्राफ": 3429,
      "आयातित": 3430,
      "2007": 3431,
      "जमावट": 3432,
      "यूआरआई": 3433,
      "संतति": 3434,
      "चव्वा": 3435,
      "AL": 3436,
      "MiB": 3437,
      "Show": 3438,
      "यव": 3439,
      "सोर्": 3440,
      "माना": 3441,
      "मालिक": 3442,
      "किये": 3443,
      "भासी": 3444,
      "प्रोफाइल": 3445,
      "ट्रेस": 3446,
      "isof": 3447,
      "बेतर": 3448,
      "नोट": 3449,
      "check": 3450,
      "बर्ग": 3451,
      "without": 3452,
      "इमेज़": 3453,
      "समायोजित": 3454,
      "पब्लिक": 3455,
      "isofs": 3456,
      "बेतरती": 3457,
      "ET": 3458,
      "some": 3459,
      "अस्थाई": 3460,
      "उद्": 3461,
      "सेवर": 3462,
      "विका": 3463,
      "जाएं": 3464,
      "पार्": 3465,
      "रीक्षण": 3466,
      "पंजी": 3467,
      "region": 3468,
      "मेलबाक्स": 3469,
      "चालन": 3470,
      "अवयव": 3471,
      "पहचानकर्ता": 3472,
      "व्यक्तिगत": 3473,
      "फैक्स": 3474,
      "रूपांतरित": 3475,
      "व्याख्या": 3476,
      "फ़्ट": 3477,
      "kraine": 3478,
      "बेतरतीब": 3479,
      "CA": 3480,
      "Em": 3481,
      "HO": 3482,
      "fer": 3483,
      "गंभी": 3484,
      "िड": 3485,
      "बाएँ": 3486,
      "कारक": 3487,
      "कार्यदिवस": 3488,
      "प्रतिनि": 3489,
      "dif": 3490,
      "विषयः": 3491,
      "कॉलम": 3492,
      "केंद्रित": 3493,
      "जैबर": 3494,
      "ख़ाका": 3495,
      "Inc": 3496,
      "सॉफ्टवेयर": 3497,
      "स्कीमा": 3498,
      "डेवलपर": 3499,
      "प्रवासित": 3500,
      "Empathy": 3501,
      "गंभीर": 3502,
      "COM": 3503,
      "FOR": 3504,
      "SE": 3505,
      "XML": 3506,
      "jan": 3507,
      "आभासी": 3508,
      "इप": 3509,
      "इंत": 3510,
      "एड": 3511,
      "ोस": 3512,
      "कोः": 3513,
      "विधा": 3514,
      "पांच": 3515,
      "हाय": 3516,
      "समु": 3517,
      "अनुपा": 3518,
      "अनुरूप": 3519,
      "ord": 3520,
      "सहभाग": 3521,
      "सिको": 3522,
      "ustr": 3523,
      "नोड": 3524,
      "दुक्का": 3525,
      "साइड": 3526,
      "MSN": 3527,
      "ग्ले": 3528,
      "space": 3529,
      "स्काइप": 3530,
      "संगतता": 3531,
      "ize": 3532,
      "सहभागियों": 3533,
      "16": 3534,
      "ador": 3535,
      "bug": 3536,
      "tur": 3537,
      "will": 3538,
      "अंग": 3539,
      "कमिंग": 3540,
      "टार": 3541,
      "पते": 3542,
      "लस": 3543,
      "संचालन": 3544,
      "दिये": 3545,
      "हार्ड": 3546,
      "उपफोल्डर": 3547,
      "टीएस": 3548,
      "जीपी": 3549,
      "ज़ि": 3550,
      "पताः": 3551,
      "ंकित": 3552,
      "थाई": 3553,
      "आईकैलेंडर": 3554,
      "फोकस": 3555,
      "eader": 3556,
      "विषयवस्तु": 3557,
      "उत्प्रवासित": 3558,
      "उसके": 3559,
      "ung": 3560,
      "have": 3561,
      "CSV": 3562,
      "नक्शा": 3563,
      "white": 3564,
      "आयत": 3565,
      "ecuador": 3566,
      "उल्लेख": 3567,
      "ग्नोम": 3568,
      "MD5": 3569,
      "इंतजार": 3570,
      "हायपर": 3571,
      "25": 3572,
      "DN": 3573,
      "came": 3574,
      "kig": 3575,
      "ola": 3576,
      "स्प": 3577,
      "लिखे": 3578,
      "फ़ा": 3579,
      "ope": 3580,
      "बनाएं": 3581,
      "सहित": 3582,
      "मुझे": 3583,
      "इनकमिंग": 3584,
      "डेव": 3585,
      "टेशन": 3586,
      "आईएस": 3587,
      "प्रमाणीकरण": 3588,
      "मिलान": 3589,
      "proper": 3590,
      "संभावना": 3591,
      "europe": 3592,
      "स्कोप": 3593,
      "ived": 3594,
      "एलार्म": 3595,
      "Date": 3596,
      "Dev": 3597,
      "ive": 3598,
      "अभ": 3599,
      "आन": 3600,
      "आलेख": 3601,
      "परा": 3602,
      "वान": 3603,
      "मिटाएं": 3604,
      "पिंग": 3605,
      "स्थितिः": 3606,
      "ब्रि": 3607,
      "्यास": 3608,
      "अंदा": 3609,
      "खोलना": 3610,
      "गुणों": 3611,
      "पंक्तियाँ": 3612,
      "प्रारंभिक": 3613,
      "RSA": 3614,
      "टिप्पणीः": 3615,
      "स्पेस": 3616,
      "ट्रांस": 3617,
      "ंगरप्रिंट": 3618,
      "शंकु": 3619,
      "संतृप्ति": 3620,
      "अभ्यास": 3621,
      "gen": 3622,
      "lu": 3623,
      "lz": 3624,
      "rul": 3625,
      "sw": 3626,
      "¥": 3627,
      "भविष": 3628,
      "ल्टी": 3629,
      "वायर": 3630,
      "होते": 3631,
      "औऱ": 3632,
      "सिया": 3633,
      "lear": 3634,
      "हटायें": 3635,
      "क्षमता": 3636,
      "अन्यथा": 3637,
      "पुनःप्राप्त": 3638,
      "हल्का": 3639,
      "Disc": 3640,
      "change": 3641,
      "भविष्य": 3642,
      "Op": 3643,
      "land": 3644,
      "ढे": 3645,
      "पर्क": 3646,
      "रै": 3647,
      "शरीर": 3648,
      "्रा": 3649,
      "हैName": 3650,
      "मार": 3651,
      "दिश": 3652,
      "इनलाइन": 3653,
      "टेक्": 3654,
      "ढूंढेंः": 3655,
      "ound": 3656,
      "सम्पर्क": 3657,
      "प्रकाश": 3658,
      "पश्चि": 3659,
      "दोषः": 3660,
      "विएत": 3661,
      "उद्देश": 3662,
      "15": 3663,
      "AB": 3664,
      "HAN": 3665,
      "To": 3666,
      "थे": 3667,
      "रल": 3668,
      "हक": 3669,
      "ृति": 3670,
      "लिका": 3671,
      "tip": 3672,
      "मिक": 3673,
      "डिक": 3674,
      "edu": 3675,
      "बनाता": 3676,
      "शीट": 3677,
      "इनबाक्स": 3678,
      "बुक": 3679,
      "वर्णनः": 3680,
      "अधिष्ठापित": 3681,
      "DA": 3682,
      "Kola": 3683,
      "NE": 3684,
      "group": 3685,
      "iran": 3686,
      "more": 3687,
      "typ": 3688,
      "ura": 3689,
      "डैश": 3690,
      "बड्डी": 3691,
      "लू": 3692,
      "वक्र": 3693,
      "कोडर": 3694,
      "पाना": 3695,
      "ंडे": 3696,
      "स्टै": 3697,
      "लाइट": 3698,
      "जिंग": 3699,
      "फाइलों": 3700,
      "गोपित": 3701,
      "urtle": 3702,
      "नोटः": 3703,
      "there": 3704,
      "AND": 3705,
      "ऊपरी": 3706,
      "कंट्रा": 3707,
      "प्रोटोकाल": 3708,
      "डायरे": 3709,
      "हिस्से": 3710,
      "ऑपरेशन": 3711,
      "नेविगे": 3712,
      "Kolab": 3713,
      "कंट्रास्ट": 3714,
      "CC": 3715,
      "GL": 3716,
      "IG": 3717,
      "header": 3718,
      "play": 3719,
      "rran": 3720,
      "send": 3721,
      "आगत": 3722,
      "एटी": 3723,
      "जॉ": 3724,
      "हरे": 3725,
      "लिस्ट": 3726,
      "सेल": 3727,
      "खास": 3728,
      "ंगा": 3729,
      "सापेक्ष": 3730,
      "न्ध": 3731,
      "राज्य": 3732,
      "inlistbox": 3733,
      "सिटरी": 3734,
      "आईपी": 3735,
      "श्रव्य": 3736,
      "निर्देशिकाः": 3737,
      "प्रशासक": 3738,
      "फ्लैग्सः": 3739,
      "विरोधी": 3740,
      "utils": 3741,
      "greece": 3742,
      "redhat": 3743,
      "string": 3744,
      "उद्देश्य": 3745,
      "types": 3746,
      "bania": 3747,
      "fa": 3748,
      "ukraine": 3749,
      "टल": 3750,
      "बौ": 3751,
      "मंग": 3752,
      "यहां": 3753,
      "शनि": 3754,
      "स्पर": 3755,
      "निरीक्षण": 3756,
      "पायें": 3757,
      "चाप": 3758,
      "albania": 3759,
      "बाल्टिक": 3760,
      "ror": 3761,
      "टीपी": 3762,
      "योजक": 3763,
      "छोटे": 3764,
      "examp": 3765,
      "पोसिटरी": 3766,
      "स्मार्ट": 3767,
      "तुल्यकालिक": 3768,
      "पठन": 3769,
      "दोहराएँ": 3770,
      "फुलस्क्रीन": 3771,
      "90": 3772,
      "agu": 3773,
      "xA": 3774,
      "अत्य": 3775,
      "ऐसी": 3776,
      "मल्टी": 3777,
      "सदिश": 3778,
      "स्टी": 3779,
      "कोहरा": 3780,
      "नेल": 3781,
      "क्रमा": 3782,
      "टिन": 3783,
      "अनजान": 3784,
      "अनदेखा": 3785,
      "संपन्न": 3786,
      "सिन": 3787,
      "सिफर": 3788,
      "अभिले": 3789,
      "चलाएं": 3790,
      "भूल": 3791,
      "मिलित": 3792,
      "ass": 3793,
      "translator": 3794,
      "सेटिंग्स": 3795,
      "क़िस्मः": 3796,
      "सम्मिलित": 3797,
      "भरेंः": 3798,
      "प्राथमिक": 3799,
      "स्लाइस": 3800,
      "स्टार्ट": 3801,
      "चेकसम": 3802,
      "None": 3803,
      "nic": 3804,
      "te": 3805,
      "छूट": 3806,
      "तत्": 3807,
      "बक्से": 3808,
      "med": 3809,
      "row": 3810,
      "रेसि": 3811,
      "सर्वा": 3812,
      "टेयर": 3813,
      "शुद्ध": 3814,
      "make": 3815,
      "2000": 3816,
      "फाई": 3817,
      "view": 3818,
      "डिबगिंग": 3819,
      "फील्ड": 3820,
      "distribut": 3821,
      "kturtle": 3822,
      "gram": 3823,
      "csv": 3824,
      "सोर्स": 3825,
      "regions": 3826,
      "properly": 3827,
      "rules": 3828,
      "learn": 3829,
      "Ap": 3830,
      "CII": 3831,
      "UL": 3832,
      "db": 3833,
      "gin": 3834,
      "उद्ध": 3835,
      "चें": 3836,
      "टाइल": 3837,
      "सच": 3838,
      "पिक्": 3839,
      "द्वितीय": 3840,
      "छां": 3841,
      "SOCK": 3842,
      "tail": 3843,
      "निकास": 3844,
      "मॉडल": 3845,
      "खींचें": 3846,
      "republic": 3847,
      "तत्काल": 3848,
      "SOCKS": 3849,
      "br": 3850,
      "lot": 3851,
      "wra": 3852,
      "आबं": 3853,
      "आयोजक": 3854,
      "रसी": 3855,
      "शन्स": 3856,
      "हवा": 3857,
      "साझे": 3858,
      "प्शन": 3859,
      "डिग्री": 3860,
      "tric": 3861,
      "सूचीबद्ध": 3862,
      "बनायें": 3863,
      "ict": 3864,
      "सुविधा": 3865,
      "जाएंगे": 3866,
      "चलाया": 3867,
      "सम्पन्न": 3868,
      "अक्षरों": 3869,
      "बजानी": 3870,
      "पटल": 3871,
      "अबतक": 3872,
      "आइलैंड": 3873,
      "आवाज़": 3874,
      "ungary": 3875,
      "विएतनामी": 3876,
      "tails": 3877,
      "wrap": 3878,
      "साझेदारी": 3879,
      "Mo": 3880,
      "MAND": 3881,
      "PART": 3882,
      "hungary": 3883,
      "nor": 3884,
      "window": 3885,
      "एस्": 3886,
      "्वा": 3887,
      "प्रस्ताव": 3888,
      "विं": 3889,
      "नेक्टेड": 3890,
      "दाव": 3891,
      "सीपी": 3892,
      "दिखाए": 3893,
      "जीएल": 3894,
      "अपवाद": 3895,
      "ich": 3896,
      "ican": 3897,
      "उपयोगी": 3898,
      "फाइलें": 3899,
      "स्वीकार्य": 3900,
      "हस्ताक्षरकर्ता": 3901,
      "क्रमण": 3902,
      "अवश्य": 3903,
      "2006": 3904,
      "details": 3905,
      "वास्तविक": 3906,
      "सॉफ़्ट": 3907,
      "पाइप": 3908,
      "ugin": 3909,
      "आर्गु": 3910,
      "आरेखित": 3911,
      "COMMAND": 3912,
      "AS": 3913,
      "FIT": 3914,
      "PUR": 3915,
      "TAB": 3916,
      "Vo": 3917,
      "WAR": 3918,
      "WIT": 3919,
      "hope": 3920,
      "आस": 3921,
      "कर्": 3922,
      "थ्रे": 3923,
      "बड़ी": 3924,
      "मर": 3925,
      "शहर": 3926,
      "ुक": 3927,
      "परस्पर": 3928,
      "anc": 3929,
      "सूर्य": 3930,
      "रियो": 3931,
      "ery": 3932,
      "लोडिंग": 3933,
      "ग्रिड": 3934,
      "शाखा": 3935,
      "बीप": 3936,
      "ANY": 3937,
      "ranty": 3938,
      "पूर्ववर्ती": 3939,
      "RANTY": 3940,
      "चीत": 3941,
      "MERC": 3942,
      "पासवर्डः": 3943,
      "POSE": 3944,
      "फेस": 3945,
      "ILIT": 3946,
      "पुरानी": 3947,
      "तत्वों": 3948,
      "useful": 3949,
      "ICUL": 3950,
      "शॉर्टकट": 3951,
      "Exchange": 3952,
      "implied": 3953,
      "EOL": 3954,
      "warranty": 3955,
      "पाएंगे": 3956,
      "HOUT": 3957,
      "kiga": 3958,
      "आईएसओ": 3959,
      "HANTAB": 3960,
      "NESS": 3961,
      "डायरेक्टरी": 3962,
      "क्रमांक": 3963,
      "distributed": 3964,
      "PARTICUL": 3965,
      "FITNESS": 3966,
      "PURPOSE": 3967,
      "WARRANTY": 3968,
      "WITHOUT": 3969,
      "MERCHANTAB": 3970,
      "ILITY": 3971,
      "PARTICULAR": 3972,
      "MERCHANTABILITY": 3973,
      "Ctr": 3974,
      "El": 3975,
      "Game": 3976,
      "cus": 3977,
      "card": 3978,
      "ila": 3979,
      "ja": 3980,
      "ure": 3981,
      "val": 3982,
      "जहां": 3983,
      "पना": 3984,
      "फाइ": 3985,
      "बच्": 3986,
      "बन्ध": 3987,
      "रवि": 3988,
      "ूं": 3989,
      "इसपर": 3990,
      "NameMeeting": 3991,
      "रेपोसिटरी": 3992,
      "जूम": 3993,
      "छोडें": 3994,
      "लॉगआउट": 3995,
      "Conf": 3996,
      "html": 3997,
      "मैप": 3998,
      "dao": 3999,
      "मौज़ूद": 4000,
      "distric": 4001,
      "व्यापार": 4002,
      "your": 4003,
      "plugin": 4004,
      "libgnomeui": 4005,
      "टेक्स्ट": 4006,
      "रसीद": 4007,
      "districts": 4008,
      "130": 4009,
      "Play": 4010,
      "SIP": 4011,
      "बजाए": 4012,
      "राइ": 4013,
      "सला": 4014,
      "लिटेयर": 4015,
      "माउ": 4016,
      "क्षित": 4017,
      "all": 4018,
      "alsa": 4019,
      "lass": 4020,
      "होंगे": 4021,
      "लीज": 4022,
      "टेलि": 4023,
      "प्रतिक्रिया": 4024,
      "प्रतिस्थापित": 4025,
      "लॉगइन": 4026,
      "इंडिया": 4027,
      "रेंडर": 4028,
      "संबंधन": 4029,
      "ult": 4030,
      "उदाहरणः": 4031,
      "लेखकः": 4032,
      "counties": 4033,
      "199": 4034,
      "DAV": 4035,
      "ilable": 4036,
      "इंडियाना": 4037,
      "Un": 4038,
      "ber": 4039,
      "ck": 4040,
      "has": 4041,
      "nl": 4042,
      "os": 4043,
      "इंग": 4044,
      "तरू": 4045,
      "धे": 4046,
      "िया": 4047,
      "ैग": 4048,
      "ताब": 4049,
      "प्री": 4050,
      "नहींः": 4051,
      "मार्क": 4052,
      "मेशन": 4053,
      "बाल": 4054,
      "domin": 4055,
      "रोमा": 4056,
      "बिया": 4057,
      "स्वरूप": 4058,
      "बर्स्ट": 4059,
      "गईः": 4060,
      "ग्रीक": 4061,
      "पुराना": 4062,
      "part": 4063,
      "tart": 4064,
      "dominican": 4065,
      "Ass": 4066,
      "Lev": 4067,
      "NN": 4068,
      "email": 4069,
      "ll": 4070,
      "man": 4071,
      "¤¢": 4072,
      "आरो": 4073,
      "खड़ा": 4074,
      "नवी": 4075,
      "मशी": 4076,
      "वयन": 4077,
      "शून": 4078,
      "हस्त": 4079,
      "्रेज": 4080,
      "र्त": 4081,
      "काई": 4082,
      "यांत्र": 4083,
      "प्रेस": 4084,
      "संयुक्त": 4085,
      "सेसिन": 4086,
      "करेंName": 4087,
      "डिज़ी": 4088,
      "येगा": 4089,
      "जिए": 4090,
      "शब्दाव": 4091,
      "rece": 4092,
      "अधिसूचित": 4093,
      "fore": 4094,
      "कनेक्टेड": 4095,
      "जनरल": 4096,
      "पारं": 4097,
      "भाषाएँ": 4098,
      "बढ़ना": 4099,
      "रेखांकित": 4100,
      "कंप्यूटर": 4101,
      "गेंद": 4102,
      "परीक्षण": 4103,
      "इन्हें": 4104,
      "सृजित": 4105,
      "महीने": 4106,
      "Ctrl": 4107,
      "Elm": 4108,
      "Level": 4109,
      "NNTP": 4110,
      "शून्य": 4111,
      "यांत्रिकी": 4112,
      "डिज़ीकैम": 4113,
      "Gtk": 4114,
      "png": 4115,
      "ंडिंग": 4116,
      "बरा": 4117,
      "र्ध": 4118,
      "कोष्ठ": 4119,
      "ताजा": 4120,
      "मिले": 4121,
      "अनुलग्न": 4122,
      "मुच": 4123,
      "ell": 4124,
      "प्रतिः": 4125,
      "एसएस": 4126,
      "कुंजि": 4127,
      "चौबी": 4128,
      "टनCity": 4129,
      "उत्तरी": 4130,
      "एनवायर": 4131,
      "बिन्दुओं": 4132,
      "ICQ": 4133,
      "विभाजन": 4134,
      "available": 4135,
      "विलेCity": 4136,
      "कठिन": 4137,
      "example": 4138,
      "सचमुच": 4139,
      "मशीन": 4140,
      "अनुलग्नक": 4141,
      "एनवायरन": 4142,
      "md": 4143,
      "pin": 4144,
      "अपरिभाषित": 4145,
      "आइस": 4146,
      "उंड": 4147,
      "धर": 4148,
      "सफे": 4149,
      "र्जि": 4150,
      "तालिका": 4151,
      "हीं": 4152,
      "सीय": 4153,
      "परिवार": 4154,
      "परिचय": 4155,
      "nec": 4156,
      "stem": 4157,
      "समाधान": 4158,
      "हटाया": 4159,
      "वेबकैम": 4160,
      "छुपी": 4161,
      "ड्रा": 4162,
      "work": 4163,
      "बुल": 4164,
      "विलोपन": 4165,
      "चीज": 4166,
      "थीम": 4167,
      "प्लेट": 4168,
      "सॉलिटेयर": 4169,
      "धीमा": 4170,
      "what": 4171,
      "दक्षिण": 4172,
      "सतह": 4173,
      "ऑब्जेक्ट": 4174,
      "नवीनतम": 4175,
      "पारंपरिक": 4176,
      "सफेद": 4177,
      "It": 4178,
      "OP": 4179,
      "ks": 4180,
      "rg": 4181,
      "res": 4182,
      "अतर": 4183,
      "आत": 4184,
      "आवास": 4185,
      "घड़ी": 4186,
      "बस": 4187,
      "रपट": 4188,
      "वृ": 4189,
      "व्र": 4190,
      "मापद": 4191,
      "दिख": 4192,
      "डियम": 4193,
      "होनी": 4194,
      "टीएआर": 4195,
      "तीसवां": 4196,
      "फिट": 4197,
      "अधिभारित": 4198,
      "ग्राहक": 4199,
      "विफलता": 4200,
      "मिलाएँ": 4201,
      "अनुप्रयोगों": 4202,
      "शैलीः": 4203,
      "फेनी": 4204,
      "शेल": 4205,
      "वितरण": 4206,
      "minut": 4207,
      "कंपाइल": 4208,
      "समायोजन": 4209,
      "वाइस": 4210,
      "अनुकूलित": 4211,
      "बैकएण्ड": 4212,
      "समूहीकृत": 4213,
      "बीजशब्द": 4214,
      "अंग्रेज": 4215,
      "rranjan": 4216,
      "सलाह": 4217,
      "manual": 4218,
      "अतरफलक": 4219,
      "MP": 4220,
      "copy": 4221,
      "rce": 4222,
      "आं": 4223,
      "उपर": 4224,
      "खरी": 4225,
      "गमक": 4226,
      "जबा": 4227,
      "तल": 4228,
      "नज़र": 4229,
      "काला": 4230,
      "प्रयास": 4231,
      "माता": 4232,
      "कीजिए": 4233,
      "मेरी": 4234,
      "सीधे": 4235,
      "यूआईडी": 4236,
      "निर्गमक": 4237,
      "सहेजते": 4238,
      "मौन": 4239,
      "फाइलनाम": 4240,
      "अंतः": 4241,
      "छोड़ा": 4242,
      "maica": 4243,
      "एक्सटें": 4244,
      "under": 4245,
      "असमर्थः": 4246,
      "पुनर्भंडारण": 4247,
      "before": 4248,
      "recurr": 4249,
      "संपीड़": 4250,
      "color": 4251,
      "बरफबारी": 4252,
      "इकाइ": 4253,
      "मेटाडाटा": 4254,
      "बदलाव": 4255,
      "बांटें": 4256,
      "setting": 4257,
      "USA": 4258,
      "वेस्टर्न": 4259,
      "jamaica": 4260,
      "51": 4261,
      "86": 4262,
      "Bcc": 4263,
      "CR": 4264,
      "Rece": 4265,
      "austr": 4266,
      "dr": 4267,
      "pg": 4268,
      "uth": 4269,
      "चो": 4270,
      "पड़": 4271,
      "लCity": 4272,
      "लूप": 4273,
      "सै": 4274,
      "क्वि": 4275,
      "देरी": 4276,
      "देखे": 4277,
      "किताब": 4278,
      "टांत": 4279,
      "साफ़": 4280,
      "डिवाइस": 4281,
      "along": 4282,
      "मेरा": 4283,
      "जोकर": 4284,
      "दाय": 4285,
      "ष्टांत": 4286,
      "संपु": 4287,
      "कॉर्ड": 4288,
      "दृष्टांत": 4289,
      "टेबल": 4290,
      "reen": 4291,
      "दृश्यता": 4292,
      "शुरु": 4293,
      "चेस": 4294,
      "त्यागें": 4295,
      "टोकन": 4296,
      "कमांडः": 4297,
      "लैं": 4298,
      "पंक्तियों": 4299,
      "विश्व": 4300,
      "ज्यामित": 4301,
      "अनुक्रियाः": 4302,
      "पलटें": 4303,
      "पहुंचनीय": 4304,
      "ढूँढ़ें": 4305,
      "received": 4306,
      "whats": 4307,
      "Receive": 4308,
      "Bain": 4309,
      "Mar": 4310,
      "rite": 4311,
      "ंबार": 4312,
      "ंबर": 4313,
      "आए": 4314,
      "इत": 4315,
      "ईकाई": 4316,
      "गित": 4317,
      "गयी": 4318,
      "चेंज": 4319,
      "वत्ता": 4320,
      "करर": 4321,
      "प्रर्द": 4322,
      "ित्व": 4323,
      "जाते": 4324,
      "tina": 4325,
      "वाता": 4326,
      "ंडा": 4327,
      "argen": 4328,
      "वेष": 4329,
      "भाविक": 4330,
      "फ़ॉर्म": 4331,
      "सुसंगतता": 4332,
      "बनाएँNew": 4333,
      "बारंबार": 4334,
      "गुणवत्ता": 4335,
      "उनके": 4336,
      "जाँचने": 4337,
      "जुड़ा": 4338,
      "अवस्थिति": 4339,
      "ट्रैश": 4340,
      "कॉन्करर": 4341,
      "बोगो": 4342,
      "पुस्तचिह्न": 4343,
      "पूछे": 4344,
      "घंटा": 4345,
      "इंटरफेस": 4346,
      "स्वाभाविक": 4347,
      "हल्की": 4348,
      "cdr": 4349,
      "tribute": 4350,
      "बातचीत": 4351,
      "9660": 4352,
      "संपीड़ित": 4353,
      "Bains": 4354,
      "Marcus": 4355,
      "argentina": 4356,
      "110": 4357,
      "size": 4358,
      "ward": 4359,
      "yth": 4360,
      "zue": 4361,
      "असंभव": 4362,
      "अस्वीकृत": 4363,
      "घू": 4364,
      "भौ": 4365,
      "भरो": 4366,
      "यस": 4367,
      "मेंट्स": 4368,
      "फ़ोल्ड": 4369,
      "ारे": 4370,
      "खातों": 4371,
      "हाई": 4372,
      "स्थगित": 4373,
      "समी": 4374,
      "itain": 4375,
      "eden": 4376,
      "nezue": 4377,
      "द्वि": 4378,
      "रेडियो": 4379,
      "तीकरण": 4380,
      "अपलोड": 4381,
      "ents": 4382,
      "डेक": 4383,
      "पेड़": 4384,
      "viet": 4385,
      "begin": 4386,
      "02110": 4387,
      "venezue": 4388,
      "great": 4389,
      "ऑपरे": 4390,
      "अधिष्ठापन": 4391,
      "दाहिने": 4392,
      "स्टेट": 4393,
      "प्रस्तुतीकरण": 4394,
      "च्छेद": 4395,
      "उल्लेखित": 4396,
      "sweden": 4397,
      "रेसिपि": 4398,
      "britain": 4399,
      "सॉफ़्टवेयर": 4400,
      "1301": 4401,
      "venezuela": 4402,
      "User": 4403,
      "aut": 4404,
      "mal": 4405,
      "software": 4406,
      "अवर": 4407,
      "अपूर्ण": 4408,
      "इन्स": 4409,
      "नंबर": 4410,
      "हत": 4411,
      "करो": 4412,
      "क्वा": 4413,
      "नाCity": 4414,
      "परे": 4415,
      "निहित": 4416,
      "est": 4417,
      "स्थाना": 4418,
      "जोड़ी": 4419,
      "रेगु": 4420,
      "गुरू": 4421,
      "आईसी": 4422,
      "फ़ॉर्मेट": 4423,
      "ments": 4424,
      "फ्रा": 4425,
      "छाप": 4426,
      "mac": 4427,
      "एक्सएमएल": 4428,
      "प्रारूपः": 4429,
      "बर्नर": 4430,
      "स्तरः": 4431,
      "चलित": 4432,
      "दिवसीय": 4433,
      "कम्पाइल": 4434,
      "सर्वाधिकार": 4435,
      "वातावरण": 4436,
      "ython": 4437,
      "75": 4438,
      "85": 4439,
      "Vi": 4440,
      "fil": 4441,
      "free": 4442,
      "second": 4443,
      "ंटर": 4444,
      "आती": 4445,
      "कम्": 4446,
      "कहाँ": 4447,
      "हम": 4448,
      "संकु": 4449,
      "कीय": 4450,
      "लेब": 4451,
      "वाक्": 4452,
      "जों": 4453,
      "लोडेड": 4454,
      "परिवह": 4455,
      "ब्लॉ": 4456,
      "फिंगरप्रिंट": 4457,
      "चिंट": 4458,
      "सुझा": 4459,
      "पैदा": 4460,
      "फ़ॉन्टः": 4461,
      "दिनों": 4462,
      "एमडी": 4463,
      "बहुल": 4464,
      "record": 4465,
      "सौं": 4466,
      "मध्यम": 4467,
      "रॉन": 4468,
      "cdrecord": 4469,
      "modif": 4470,
      "अपारदर्शिता": 4471,
      "कलाकार": 4472,
      "वर्गीकृत": 4473,
      "शब्दावली": 4474,
      "फ़ोल्डर्स": 4475,
      "परिवहन": 4476,
      "80": 4477,
      "Bost": 4478,
      "E0": 4479,
      "Ed": 4480,
      "Next": 4481,
      "ake": 4482,
      "dat": 4483,
      "eith": 4484,
      "put": 4485,
      "write": 4486,
      "xE0": 4487,
      "बूट": 4488,
      "रन": 4489,
      "रर": 4490,
      "हमा": 4491,
      "र्ज": 4492,
      "नानी": 4493,
      "माला": 4494,
      "लायक": 4495,
      "टाउन": 4496,
      "नीला": 4497,
      "खोजने": 4498,
      "ब्रॉ": 4499,
      "हरें": 4500,
      "ढ़ा": 4501,
      "लॉट": 4502,
      "चेतावनीः": 4503,
      "own": 4504,
      "मॉनी": 4505,
      "विस्तारित": 4506,
      "कंपनी": 4507,
      "gradi": 4508,
      "immed": 4509,
      "हूँ": 4510,
      "अनुपात": 4511,
      "ढेर": 4512,
      "पश्चिमी": 4513,
      "fault": 4514,
      "कोहराweather": 4515,
      "एनवायरनमेंट": 4516,
      "बोगोफिल्टर": 4517,
      "अवरो": 4518,
      "modify": 4519,
      "Boston": 4520,
      "either": 4521,
      "BCC": 4522,
      "St": 4523,
      "date": 4524,
      "no": 4525,
      "oom": 4526,
      "आटो": 4527,
      "खला": 4528,
      "जर्": 4529,
      "प्रदान": 4530,
      "लिस": 4531,
      "लेटेक्स": 4532,
      "ड़ियाँ": 4533,
      "न्ट्स": 4534,
      "ink": 4535,
      "सिग्न": 4536,
      "ट्रोल": 4537,
      "बिल्": 4538,
      "पृथ": 4539,
      "अंश": 4540,
      "चलाना": 4541,
      "परिवर्तनों": 4542,
      "पोर्टः": 4543,
      "गतिः": 4544,
      "च्छ": 4545,
      "टर्न": 4546,
      "maildir": 4547,
      "क्लास": 4548,
      "जायेंगे": 4549,
      "अंतरफलक": 4550,
      "कार्यान्वित": 4551,
      "ished": 4552,
      "ध्यान": 4553,
      "मंगल": 4554,
      "सिग्नल": 4555,
      "Cl": 4556,
      "Group": 4557,
      "Spa": 4558,
      "Xlib": 4559,
      "ian": 4560,
      "ign": 4561,
      "publ": 4562,
      "आया": 4563,
      "कू": 4564,
      "वहाँ": 4565,
      "र्याप्त": 4566,
      "केआई": 4567,
      "प्रे": 4568,
      "ड़ों": 4569,
      "क्रा": 4570,
      "डिजि": 4571,
      "समझ": 4572,
      "later": 4573,
      "रूकें": 4574,
      "gmail": 4575,
      "roll": 4576,
      "यूनानी": 4577,
      "bar": 4578,
      "तीव्र": 4579,
      "अपर्याप्त": 4580,
      "शिक्षण": 4581,
      "कॉम्": 4582,
      "read": 4583,
      "आरडबल्यू": 4584,
      "istribute": 4585,
      "पूर्णस्क्रीन": 4586,
      "पूर्णांक": 4587,
      "परिवर्तनीय": 4588,
      "urn": 4589,
      "पढ़े": 4590,
      "point": 4591,
      "terms": 4592,
      "सॉकेट": 4593,
      "two": 4594,
      "Inser": 4595,
      "redistribute": 4596,
      "छांटें": 4597,
      "रेगुलर": 4598,
      "gradients": 4599,
      "published": 4600,
      "UN": 4601,
      "ply": 4602,
      "अस्वीकार": 4603,
      "इंडे": 4604,
      "यः": 4605,
      "रCity": 4606,
      "करी": 4607,
      "क्ले": 4608,
      "मापक": 4609,
      "tions": 4610,
      "सूचि": 4611,
      "trol": 4612,
      "ग्रै": 4613,
      "स्टाइल": 4614,
      "स्टेज": 4615,
      "गुए": 4616,
      "जोड़ेंः": 4617,
      "शुक्र": 4618,
      "लिखी": 4619,
      "utter": 4620,
      "पैचेस": 4621,
      "प्रतिबन्ध": 4622,
      "अभिव्यक्ति": 4623,
      "ढूंढने": 4624,
      "पारदर्शिता": 4625,
      "02u": 4626,
      "स्केप": 4627,
      "बजायी": 4628,
      "फैलाएँ": 4629,
      "संभवतः": 4630,
      "माइम": 4631,
      "पत्ते": 4632,
      "पत्तों": 4633,
      "निरस्त": 4634,
      "कुकीज़": 4635,
      "south": 4636,
      "पंजीकृत": 4637,
      "संभावनाweather": 4638,
      "्वाधर": 4639,
      "र्ध्वाधर": 4640,
      "View": 4641,
      "Clutter": 4642,
      "Spam": 4643,
      "Flo": 4644,
      "Su": 4645,
      "line": 4646,
      "एवी": 4647,
      "डCity": 4648,
      "वत्": 4649,
      "र्ग": 4650,
      "क्विक": 4651,
      "तारा": 4652,
      "खागार": 4653,
      "रानी": 4654,
      "रूसी": 4655,
      "स्तान": 4656,
      "वर्तन": 4657,
      "खोजना": 4658,
      "पृष्ठों": 4659,
      "स्वचलित": 4660,
      "पैच": 4661,
      "अंत्य": 4662,
      "प्रतिबंध": 4663,
      "ब्राउजिंग": 4664,
      "key": 4665,
      "every": 4666,
      "मुद्रक": 4667,
      "जुड़े": 4668,
      "वरीयताएं": 4669,
      "गीतसूची": 4670,
      "संशोधनः": 4671,
      "दीर्घवृत्त": 4672,
      "खण्डन": 4673,
      "कार्यान्वयन": 4674,
      "xA4": 4675,
      "अभिलेखागार": 4676,
      "assin": 4677,
      "Assassin": 4678,
      "संपुष्टि": 4679,
      "Edit": 4680,
      "SpamAssassin": 4681,
      "245": 4682,
      "Fran": 4683,
      "ger": 4684,
      "kor": 4685,
      "python": 4686,
      "rus": 4687,
      "vis": 4688,
      "ंटी": 4689,
      "ंमत": 4690,
      "ंखला": 4691,
      "आड़ा": 4692,
      "एनि": 4693,
      "मैसे": 4694,
      "राइट": 4695,
      "लपे": 4696,
      "िभाषित": 4697,
      "ृंखला": 4698,
      "नार": 4699,
      "संक्षि": 4700,
      "विड": 4701,
      "ल्म": 4702,
      "क्षार": 4703,
      "इसलिए": 4704,
      "जोर": 4705,
      "डील": 4706,
      "जोड़ता": 4707,
      "लगंमत": 4708,
      "remin": 4709,
      "रंगों": 4710,
      "प्लगइन्स": 4711,
      "कैटा": 4712,
      "फ़ॉन्ट्स": 4713,
      "अंजु": 4714,
      "छाया": 4715,
      "इंजिन": 4716,
      "कंट्रोल": 4717,
      "डेटाबेस": 4718,
      "nam": 4719,
      "PermissionsLevel": 4720,
      "ग्रेडि": 4721,
      "रोमानियाई": 4722,
      "whatsthis": 4723,
      "vietnam": 4724,
      "ब्रॉउ": 4725,
      "korea": 4726,
      "reminder": 4727,
      "14": 4728,
      "Ad": 4729,
      "Java": 4730,
      "cm": 4731,
      "hint": 4732,
      "mt": 4733,
      "mar": 4734,
      "अला": 4735,
      "अक्रिय": 4736,
      "अद्वितीय": 4737,
      "एनी": 4738,
      "चले": 4739,
      "ठहरें": 4740,
      "तू": 4741,
      "पदा": 4742,
      "पहे": 4743,
      "हण": 4744,
      "चार्ट": 4745,
      "रिक्ति": 4746,
      "options": 4747,
      "लगता": 4748,
      "armen": 4749,
      "वेरिए": 4750,
      "stom": 4751,
      "विकल्पों": 4752,
      "खेलें": 4753,
      "गोलिक": 4754,
      "म्ब": 4755,
      "पैटर्न": 4756,
      "आउटबॉक्स": 4757,
      "like": 4758,
      "Connec": 4759,
      "विवरणः": 4760,
      "न्दर": 4761,
      "बढ़ते": 4762,
      "प्लेन": 4763,
      "सारांशः": 4764,
      "स्कोर": 4765,
      "बढ़ाएँ": 4766,
      "peru": 4767,
      "एक्सेसे": 4768,
      "System": 4769,
      "टूलबार": 4770,
      "टूटी": 4771,
      "ग्लेड": 4772,
      "एक्सटेंशन": 4773,
      "इकाइयों": 4774,
      "ज्यामिति": 4775,
      "भौगोलिक": 4776,
      "संकुचित": 4777,
      "Insert": 4778,
      "armenia": 4779,
      "Tr": 4780,
      "Xi": 4781,
      "category": 4782,
      "description": 4783,
      "from": 4784,
      "gi": 4785,
      "tv": 4786,
      "असुरक्षित": 4787,
      "आसान": 4788,
      "गज": 4789,
      "सटी": 4790,
      "tive": 4791,
      "लेव": 4792,
      "लेआउट": 4793,
      "ंगो": 4794,
      "ंडल": 4795,
      "नीति": 4796,
      "ote": 4797,
      "मिटायें": 4798,
      "त्रुटियाँ": 4799,
      "सर्वरः": 4800,
      "icon": 4801,
      "ट्रस्ट": 4802,
      "दृष्टि": 4803,
      "पहली": 4804,
      "दृश्यमान": 4805,
      "एंकर": 4806,
      "खेलगंमत": 4807,
      "पत्रिका": 4808,
      "बेडेड": 4809,
      "धारण": 4810,
      "दुर्": 4811,
      "रखते": 4812,
      "कंसोल": 4813,
      "एनक्रि": 4814,
      "tab": 4815,
      "mian": 4816,
      "संशोधित": 4817,
      "ट्रिगर": 4818,
      "custom": 4819,
      "बाइंडिंग": 4820,
      "अनुमानित": 4821,
      "अंदाज़": 4822,
      "कर्नेल": 4823,
      "प्रर्दशित": 4824,
      "चिंटू": 4825,
      "Ximian": 4826,
      "Fif": 4827,
      "My": 4828,
      "cr": 4829,
      "klin": 4830,
      "way": 4831,
      "ंद": 4832,
      "आलो": 4833,
      "ओपन": 4834,
      "कहीं": 4835,
      "टित": 4836,
      "ड्यूल": 4837,
      "पढ": 4838,
      "बल्": 4839,
      "वु": 4840,
      "काउ": 4841,
      "सेन": 4842,
      "ाइली": 4843,
      "लेन": 4844,
      "मेरे": 4845,
      "हैंड": 4846,
      "रियल": 4847,
      "रेखी": 4848,
      "समापन": 4849,
      "भेजे": 4850,
      "पैड": 4851,
      "पोस्ट": 4852,
      "स्माइली": 4853,
      "default": 4854,
      "आंकड़े": 4855,
      "श्रेण": 4856,
      "उन्मुख": 4857,
      "सोम": 4858,
      "endar": 4859,
      "लगाने": 4860,
      "फैला": 4861,
      "अग्रसारण": 4862,
      "report": 4863,
      "फुहारweather": 4864,
      "Devhelp": 4865,
      "Floor": 4866,
      "Franklin": 4867,
      "Fifth": 4868,
      "आलोकित": 4869,
      "ag": 4870,
      "fs": 4871,
      "fin": 4872,
      "fri": 4873,
      "ght": 4874,
      "mote": 4875,
      "छार": 4876,
      "टने": 4877,
      "बने": 4878,
      "कान": 4879,
      "प्रधान": 4880,
      "हीन": 4881,
      "टाक": 4882,
      "मियाद": 4883,
      "alia": 4884,
      "बाउ": 4885,
      "inc": 4886,
      "कार्बन": 4887,
      "परिभाषा": 4888,
      "हुये": 4889,
      "ice": 4890,
      "जिप": 4891,
      "ise": 4892,
      "लैश": 4893,
      "कमरा": 4894,
      "तिथिः": 4895,
      "ड्रैग": 4896,
      "फ्लैश": 4897,
      "जरु": 4898,
      "endly": 4899,
      "ड्राइवर": 4900,
      "ISO9660": 4901,
      "तारीख": 4902,
      "विशेषताएँ": 4903,
      "STUN": 4904,
      "tooltip": 4905,
      "ऑफसेट": 4906,
      "सिटीCity": 4907,
      "निस्पं": 4908,
      "नाइज़": 4909,
      "नेविगेशन": 4910,
      "एटीके": 4911,
      "बौछार": 4912,
      "md5": 4913,
      "रिक्तिकरण": 4914,
      "Connector": 4915,
      "friendly": 4916,
      "Cc": 4917,
      "Evin": 4918,
      "Fmt": 4919,
      "Of": 4920,
      "Pre": 4921,
      "aDate": 4922,
      "burn": 4923,
      "folder": 4924,
      "अचयनित": 4925,
      "चलें": 4926,
      "टक": 4927,
      "तर्": 4928,
      "भरे": 4929,
      "लड़ियाँ": 4930,
      "हाइ": 4931,
      "नात्मक": 4932,
      "ession": 4933,
      "बायें": 4934,
      "त्वर": 4935,
      "सर्वो": 4936,
      "रोस्टर": 4937,
      "atal": 4938,
      "डेमन": 4939,
      "श्वे": 4940,
      "eland": 4941,
      "व्यक्त": 4942,
      "2002": 4943,
      "फार्मेट": 4944,
      "आंकड़ों": 4945,
      "दबाये": 4946,
      "फीड": 4947,
      "विश्लेषित": 4948,
      "Remote": 4949,
      "abber": 4950,
      "दोषसुधार": 4951,
      "एक्ज": 4952,
      "तरीका": 4953,
      "त्रिज्या": 4954,
      "START": 4955,
      "विभाजित": 4956,
      "toolbar": 4957,
      "पत्ताः": 4958,
      "आमंत्रित": 4959,
      "प्रतिनिधि": 4960,
      "Open": 4961,
      "आर्गुमेंट्स": 4962,
      "recurrpage": 4963,
      "Evince": 4964,
      "aDateFmt": 4965,
      "202": 4966,
      "Ekiga": 4967,
      "Loc": 4968,
      "ft": 4969,
      "oe": 4970,
      "pla": 4971,
      "rich": 4972,
      "vanc": 4973,
      "आर्मे": 4974,
      "उक्रे": 4975,
      "छित": 4976,
      "नै": 4977,
      "फार": 4978,
      "बाइल": 4979,
      "ूपित": 4980,
      "ॉन": 4981,
      "करा": 4982,
      "नेपो": 4983,
      "फ़र": 4984,
      "लिएः": 4985,
      "साय": 4986,
      "उपक्रम": 4987,
      "बाँ": 4988,
      "डाई": 4989,
      "indi": 4990,
      "inEMAIL": 4991,
      "यूआई": 4992,
      "वीजी": 4993,
      "मानचित्र": 4994,
      "program": 4995,
      "चुनना": 4996,
      "प्राधि": 4997,
      "मोबाइल": 4998,
      "पीडी": 4999,
      "दर्शा": 5000,
      "प्रारूपित": 5001,
      "एसटी": 5002,
      "पंक्तिबद्ध": 5003,
      "संस्करणः": 5004,
      "Control": 5005,
      "पूर्ववत्": 5006,
      "ल्टरिंग": 5007,
      "डाउनलोड्स": 5008,
      "event": 5009,
      "एनकोडिंग्स": 5010,
      "umn": 5011,
      "यूआरएलः": 5012,
      "बढ़ाने": 5013,
      "बाध्यकारी": 5014,
      "निस्पादन": 5015,
      "तीसरे": 5016,
      "समुच्च": 5017,
      "ASCII": 5018,
      "माउन्ट": 5019,
      "हस्तचालित": 5020,
      "मापदंड": 5021,
      "नज़रअंदाज़": 5022,
      "पहुंचनीयता": 5023,
      "हाईलाइट": 5024,
      "आईसीक्यू": 5025,
      "मॉनीटर": 5026,
      "icons": 5027,
      "2022": 5028,
      "vanced": 5029,
      "Ar": 5030,
      "able": 5031,
      "ele": 5032,
      "lan": 5033,
      "slot": 5034,
      "अनियत": 5035,
      "अशुद्ध": 5036,
      "आकृति": 5037,
      "एसेसिन": 5038,
      "घा": 5039,
      "ठोस": 5040,
      "बड़े": 5041,
      "लम्बा": 5042,
      "सुन": 5043,
      "हर्": 5044,
      "विभाग": 5045,
      "विरूपित": 5046,
      "नेक": 5047,
      "लास": 5048,
      "लेक्": 5049,
      "पाएँ": 5050,
      "latv": 5051,
      "टियाँ": 5052,
      "एकसाथ": 5053,
      "डालने": 5054,
      "विंडोज": 5055,
      "मौलिक": 5056,
      "बिक": 5057,
      "गोचर": 5058,
      "जांचे": 5059,
      "थियास": 5060,
      "इंजन": 5061,
      "ट्रैक्स": 5062,
      "2003": 5063,
      "वांछित": 5064,
      "ack": 5065,
      "स्मृति": 5066,
      "पुनर्भंडारित": 5067,
      "कतार": 5068,
      "ication": 5069,
      "तैयारी": 5070,
      "start": 5071,
      "bjects": 5072,
      "स्कैनिंग": 5073,
      "प्राथमिकताः": 5074,
      "व्यवस्था": 5075,
      "एपीफेनी": 5076,
      "स्पैमएसेसिन": 5077,
      "लोगों": 5078,
      "sendmail": 5079,
      "norway": 5080,
      "थ्रेड": 5081,
      "एनीमेशन": 5082,
      "श्वेत": 5083,
      "समुच्चय": 5084,
      "latvia": 5085,
      "22": 5086,
      "FC": 5087,
      "List": 5088,
      "RFC": 5089,
      "XMP": 5090,
      "ib": 5091,
      "sia": 5092,
      "windows": 5093,
      "¤": 5094,
      "अन्दर": 5095,
      "झु": 5096,
      "तरा": 5097,
      "थं": 5098,
      "पड़े": 5099,
      "फें": 5100,
      "बर्ता": 5101,
      "वॉ": 5102,
      "सचे": 5103,
      "ाधिकार": 5104,
      "्म": 5105,
      "र्डर": 5106,
      "ताः": 5107,
      "संस्थापन": 5108,
      "सेरि": 5109,
      "विगोपन": 5110,
      "विभिन्न": 5111,
      "विराम": 5112,
      "परेशन": 5113,
      "ंग्": 5114,
      "रात": 5115,
      "बाह": 5116,
      "नीहार": 5117,
      "सीएम": 5118,
      "input": 5119,
      "ोंट": 5120,
      "गामा": 5121,
      "ब्स": 5122,
      "रोध": 5123,
      "कॉमिक": 5124,
      "प्रोग्रा": 5125,
      "डिस्कनेक्टेड": 5126,
      "छापा": 5127,
      "स्रोतः": 5128,
      "बगैर": 5129,
      "साइन": 5130,
      "2005": 5131,
      "छोड़ने": 5132,
      "विशेषाधिकार": 5133,
      "स्पेक्ट": 5134,
      "वितरित": 5135,
      "फॉर्म": 5136,
      "क्लाएंट": 5137,
      "anada": 5138,
      "count": 5139,
      "डबल्यूएम": 5140,
      "तीसरा": 5141,
      "फ़ोकस": 5142,
      "सिकोड़ें": 5143,
      "Mozilla": 5144,
      "चौबीस": 5145,
      "सुझाव": 5146,
      "संक्षिप्त": 5147,
      "नीहारिका": 5148,
      "BO": 5149,
      "DE": 5150,
      "Less": 5151,
      "Link": 5152,
      "OW": 5153,
      "bu": 5154,
      "class": 5155,
      "जह": 5156,
      "डु": 5157,
      "ढु": 5158,
      "णिका": 5159,
      "दम": 5160,
      "भेंट": 5161,
      "लम": 5162,
      "वस्त": 5163,
      "सजीवन": 5164,
      "हमें": 5165,
      "हाइट": 5166,
      "िश": 5167,
      "ौती": 5168,
      "स्लॉट": 5169,
      "सेः": 5170,
      "करेंगे": 5171,
      "चुनौती": 5172,
      "पिया": 5173,
      "टेन": 5174,
      "दृश्यः": 5175,
      "आरंभी": 5176,
      "बैटरी": 5177,
      "क्रियाएँ": 5178,
      "व्यवह": 5179,
      "बेकार": 5180,
      "मदों": 5181,
      "क्रमबद्ध": 5182,
      "बर्ट": 5183,
      "ण्डर": 5184,
      "फीचर": 5185,
      "POP3": 5186,
      "फॉर्मेट": 5187,
      "पदक्रम": 5188,
      "अनुक्रमणिका": 5189,
      "त्रिभुज": 5190,
      "Enter": 5191,
      "विकास": 5192,
      "साइडबार": 5193,
      "आयतन": 5194,
      "ग्रेडिएंट": 5195,
      "वेरिएबल": 5196,
      "लम्बाई": 5197,
      "व्यवहार": 5198,
      "48": 5199,
      "Bus": 5200,
      "EU": 5201,
      "Email": 5202,
      "IF": 5203,
      "MH": 5204,
      "Pine": 5205,
      "Sec": 5206,
      "VP": 5207,
      "cation": 5208,
      "canada": 5209,
      "gpg": 5210,
      "ire": 5211,
      "zoom": 5212,
      "अस": 5213,
      "अर्": 5214,
      "आपरेशन": 5215,
      "गन": 5216,
      "फोंट": 5217,
      "सित": 5218,
      "नाई": 5219,
      "संतु": 5220,
      "संरूपित": 5221,
      "सेस": 5222,
      "विटी": 5223,
      "फ़ै": 5224,
      "ल्टा": 5225,
      "परत": 5226,
      "निग": 5227,
      "लांच": 5228,
      "लेपर": 5229,
      "हाव": 5230,
      "इसवां": 5231,
      "रिय": 5232,
      "error": 5233,
      "सकर्ता": 5234,
      "यूएस": 5235,
      "ब्लॉक": 5236,
      "पिड": 5237,
      "मेलन": 5238,
      "मेलर": 5239,
      "जेस्ट": 5240,
      "श्रेत्र": 5241,
      "पैन": 5242,
      "बीसवां": 5243,
      "urity": 5244,
      "चलायें": 5245,
      "प्रतीक्षार": 5246,
      "RSVP": 5247,
      "चारसेट": 5248,
      "eet": 5249,
      "प्रविष्टियों": 5250,
      "ऊँचाईः": 5251,
      "रहवां": 5252,
      "आइकन": 5253,
      "मिलीसेकेंड": 5254,
      "डायजेस्ट": 5255,
      "दाहिना": 5256,
      "छिपाएँ": 5257,
      "Street": 5258,
      "विकासकर्ता": 5259,
      "फ़ायर": 5260,
      "डेवलेपर": 5261,
      "छांटा": 5262,
      "आबंटित": 5263,
      "भरोसा": 5264,
      "छापने": 5265,
      "वाक्य": 5266,
      "दृष्टिगोचर": 5267,
      "Location": 5268,
      "EUC": 5269,
      "प्रतीक्षारत": 5270,
      "13": 5271,
      "34": 5272,
      "323": 5273,
      "ear": 5274,
      "lt": 5275,
      "nc": 5276,
      "zer": 5277,
      "अथ": 5278,
      "ईजी": 5279,
      "कब": 5280,
      "टु": 5281,
      "ट्यू": 5282,
      "रजि": 5283,
      "सजा": 5284,
      "स्लो": 5285,
      "प्रकट": 5286,
      "विस्थापित": 5287,
      "नेस": 5288,
      "साओ": 5289,
      "eston": 5290,
      "लोके": 5291,
      "doc": 5292,
      "अनुमा": 5293,
      "हुच": 5294,
      "ंतर": 5295,
      "जीएन": 5296,
      "उपयोगः": 5297,
      "refer": 5298,
      "एंबेडेड": 5299,
      "दोहरे": 5300,
      "चौडाई": 5301,
      "वलय": 5302,
      "जिसने": 5303,
      "निकट": 5304,
      "घंटी": 5305,
      "ermany": 5306,
      "बर्फबारी": 5307,
      "व्यवस्थित": 5308,
      "धुंधweather": 5309,
      "events": 5310,
      "बिटरेट": 5311,
      "अंग्रेजी": 5312,
      "समीक्षा": 5313,
      "कैटालॉग": 5314,
      "निस्पंदन": 5315,
      "OfThe": 5316,
      "बाँटें": 5317,
      "अथवा": 5318,
      "estonia": 5319,
      "ati": 5320,
      "cen": 5321,
      "gener": 5322,
      "germany": 5323,
      "hn": 5324,
      "ncame": 5325,
      "उम्": 5326,
      "एलि": 5327,
      "ऑप्": 5328,
      "भरण": 5329,
      "वक्त": 5330,
      "हॉ": 5331,
      "स्ड": 5332,
      "संक्रमण": 5333,
      "लिसी": 5334,
      "विक्रे": 5335,
      "निको": 5336,
      "पार्ट": 5337,
      "हाथ": 5338,
      "न्तर": 5339,
      "शिंग": 5340,
      "डेरॉन": 5341,
      "हेल्प": 5342,
      "हेडेरॉन": 5343,
      "हटाओ": 5344,
      "जेन": 5345,
      "oll": 5346,
      "एसवीसीडी": 5347,
      "तकनी": 5348,
      "मीद": 5349,
      "प्रतीत": 5350,
      "appoint": 5351,
      "सम्मेलन": 5352,
      "वर्गः": 5353,
      "evolution": 5354,
      "ल्सCity": 5355,
      "पाइथन": 5356,
      "एटलस": 5357,
      "रहता": 5358,
      "display": 5359,
      "ल्यूम": 5360,
      "paragu": 5361,
      "विभाजक": 5362,
      "खुला": 5363,
      "लघुछवि": 5364,
      "अन्तर्": 5365,
      "फ़ील्ड": 5366,
      "हायपरलिंक": 5367,
      "डैशर": 5368,
      "फाईल": 5369,
      "उद्धरण": 5370,
      "ncamerica": 5371,
      "उम्मीद": 5372,
      "appointment": 5373,
      "paraguay": 5374,
      "अन्तर्निहित": 5375,
      "Ch": 5376,
      "bo": 5377,
      "hond": 5378,
      "pol": 5379,
      "yana": 5380,
      "अनाम": 5381,
      "अस्त": 5382,
      "अनेक": 5383,
      "चतुर्": 5384,
      "सैर": 5385,
      "००": 5386,
      "काटे": 5387,
      "के3": 5388,
      "जांचा": 5389,
      "परंत": 5390,
      "्यवाद": 5391,
      "medi": 5392,
      "लेक": 5393,
      "वाय": 5394,
      "हालां": 5395,
      "समै": 5396,
      "नामों": 5397,
      "रिवर": 5398,
      "डीबी": 5399,
      "sty": 5400,
      "ics": 5401,
      "ated": 5402,
      "जियम": 5403,
      "जूटा": 5404,
      "lets": 5405,
      "गोरि": 5406,
      "अंजूटा": 5407,
      "खोलता": 5408,
      "चिह्नों": 5409,
      "मीडियम": 5410,
      "फ्ल": 5411,
      "दुहरा": 5412,
      "मूल्": 5413,
      "chile": 5414,
      "rior": 5415,
      "फास्ट": 5416,
      "अक्षमः": 5417,
      "vide": 5418,
      "बुला": 5419,
      "धन्यवाद": 5420,
      "पहचाना": 5421,
      "दबाऐ": 5422,
      "guyana": 5423,
      "परिवर्धन": 5424,
      "cript": 5425,
      "टेक्सट": 5426,
      "gtkhtml": 5427,
      "एल्बम": 5428,
      "बिंबों": 5429,
      "क्वेरी": 5430,
      "घटाएँ": 5431,
      "अपारदर्शी": 5432,
      "ठहराव": 5433,
      "्रास": 5434,
      "uras": 5435,
      "र्जियाई": 5436,
      "प्लेनटेक्सट": 5437,
      "आर्मेनियाई": 5438,
      "बर्ताव": 5439,
      "honduras": 5440,
      "परंतु": 5441,
      "हालांकि": 5442,
      "DF": 5443,
      "FTP": 5444,
      "GiB": 5445,
      "SA": 5446,
      "TO": 5447,
      "Wise": 5448,
      "XX": 5449,
      "auth": 5450,
      "iod": 5451,
      "look": 5452,
      "ohn": 5453,
      "pfriendly": 5454,
      "we": 5455,
      "इट": 5456,
      "ओला": 5457,
      "चूं": 5458,
      "डै": 5459,
      "धू": 5460,
      "मई": 5461,
      "कारि": 5462,
      "स्टि": 5463,
      "लिटी": 5464,
      "विया": 5465,
      "देन": 5466,
      "टाई": 5467,
      "डिक्ले": 5468,
      "न्द्र": 5469,
      "समीकरण": 5470,
      "roon": 5471,
      "bab": 5472,
      "पीईजी": 5473,
      "पट्टिका": 5474,
      "पृष्ठः": 5475,
      "खेलName": 5476,
      "फ्लो": 5477,
      "एलडी": 5478,
      "atemal": 5479,
      "अवस्था": 5480,
      "2004": 5481,
      "कार्डस्": 5482,
      "आवंट": 5483,
      "पुनर्प्राप्ति": 5484,
      "पारिभाषित": 5485,
      "वापसी": 5486,
      "धित्व": 5487,
      "guatemal": 5488,
      "स्लाइडर": 5489,
      "अंतराफलक": 5490,
      "डॉलर": 5491,
      "तालाबंद": 5492,
      "period": 5493,
      "days": 5494,
      "Format": 5495,
      "ब्राउज़िंग": 5496,
      "प्रतिनिधित्व": 5497,
      "256": 5498,
      "cameroon": 5499,
      "uration": 5500,
      "अत्यंत": 5501,
      "पिक्समे": 5502,
      "बच्चे": 5503,
      "बिल्कुल": 5504,
      "GroupWise": 5505,
      "southkorea": 5506,
      "एवींस": 5507,
      "russia": 5508,
      "जरुर": 5509,
      "नेपोमक": 5510,
      "OWA": 5511,
      "वस्तू": 5512,
      "Security": 5513,
      "पिडगिन": 5514,
      "विक्रेता": 5515,
      "style": 5516,
      "चूंकि": 5517,
      "guatemala": 5518,
      "400": 5519,
      "Er": 5520,
      "Ke": 5521,
      "LE": 5522,
      "OT": 5523,
      "ader": 5524,
      "co": 5525,
      "fr": 5526,
      "vc": 5527,
      "¤": 5528,
      "ंप": 5529,
      "अम्": 5530,
      "आदि": 5531,
      "ख्य": 5532,
      "थो": 5533,
      "दह": 5534,
      "बजाने": 5535,
      "बच्च": 5536,
      "भे": 5537,
      "मृ": 5538,
      "मCity": 5539,
      "शंस": 5540,
      "हंस": 5541,
      "कोर": 5542,
      "ताकि": 5543,
      "ताराम": 5544,
      "संपूर्ण": 5545,
      "परवलय": 5546,
      "्यु": 5547,
      "esti": 5548,
      "बाकी": 5549,
      "oth": 5550,
      "रोहित": 5551,
      "वेश": 5552,
      "पुर": 5553,
      "इनकोडर": 5554,
      "फिल्टरिंग": 5555,
      "पिक्स": 5556,
      "पट्टीweather": 5557,
      "कैन": 5558,
      "ढ़ने": 5559,
      "क्षेत्रः": 5560,
      "गोस": 5561,
      "एसडी": 5562,
      "उत्पाद": 5563,
      "बादल": 5564,
      "मैने": 5565,
      "खिसकाया": 5566,
      "बुध": 5567,
      "डोमि": 5568,
      "नियंत्रक": 5569,
      "प्लेलिस्ट": 5570,
      "URLs": 5571,
      "स्पेन": 5572,
      "column": 5573,
      "सांख्य": 5574,
      "ग्नू": 5575,
      "सिमुलेट": 5576,
      "संपीडन": 5577,
      "समेटें": 5578,
      "Restart": 5579,
      "कुंजीपटल": 5580,
      "link": 5581,
      "nick": 5582,
      "सीपीयू": 5583,
      "इतने": 5584,
      "cdrdao": 5585,
      "autom": 5586,
      "Editor": 5587,
      "उक्रेनियाई": 5588,
      "वॉल्यूम": 5589,
      "निगरानी": 5590,
      "चतुर्भुज": 5591,
      "के3बी": 5592,
      "riority": 5593,
      "SASL": 5594,
      "Key": 5595,
      "हंसपद": 5596,
      "09": 5597,
      "32": 5598,
      "No": 5599,
      "sound": 5600,
      "zip": 5601,
      "एम्": 5602,
      "गता": 5603,
      "जCity": 5604,
      "डब्": 5605,
      "मछ": 5606,
      "मण्ड": 5607,
      "िनाई": 5608,
      "करनी": 5609,
      "करती": 5610,
      "काव": 5611,
      "यान": 5612,
      "केन": 5613,
      "कोल": 5614,
      "संभा": 5615,
      "लिफा": 5616,
      "निचला": 5617,
      "ोल्ट": 5618,
      "इसी": 5619,
      "मेक्रो": 5620,
      "अनसेट": 5621,
      "डीबग": 5622,
      "अनुशंस": 5623,
      "सिंक": 5624,
      "जीयूआई": 5625,
      "पिन": 5626,
      "rew": 5627,
      "भेजते": 5628,
      "कैप्स": 5629,
      "खेले": 5630,
      "बारिश": 5631,
      "ग्राफि": 5632,
      "तरफ": 5633,
      "कमजोर": 5634,
      "दस्तावेज़ीकरण": 5635,
      "मित्र": 5636,
      "कोडः": 5637,
      "सेंटर": 5638,
      "shell": 5639,
      "घुमाया": 5640,
      "लुइस": 5641,
      "चारों": 5642,
      "स्केलिंग": 5643,
      "क्रोएशिया": 5644,
      "print": 5645,
      "स्टाक": 5646,
      "पेजर": 5647,
      "प्राथमिकताएँ": 5648,
      "ebrew": 5649,
      "खींचने": 5650,
      "एक्चेंज": 5651,
      "कितने": 5652,
      "applets": 5653,
      "phil": 5654,
      "एचटीटीपी": 5655,
      "Resolution": 5656,
      "कठिनाई": 5657,
      "शॉर्टक": 5658,
      "गोपनीयता": 5659,
      "ढाल": 5660,
      "config": 5661,
      "source": 5662,
      "turkey": 5663,
      "CRL": 5664,
      "प्रोग्राम्स": 5665,
      "नीहारिकाobject": 5666,
      "एलडीएपी": 5667,
      "पिक्समेप": 5668,
      "बच्चों": 5669,
      "लिफाफा": 5670,
      "अनुशंसित": 5671,
      "Festi": 5672,
      "Git": 5673,
      "NTL": 5674,
      "PA": 5675,
      "PG": 5676,
      "Sp": 5677,
      "Second": 5678,
      "Text": 5679,
      "bb": 5680,
      "curr": 5681,
      "gconf": 5682,
      "ime": 5683,
      "session": 5684,
      "इक": 5685,
      "इफ": 5686,
      "औसत": 5687,
      "जरिए": 5688,
      "तृ": 5689,
      "तहत": 5690,
      "बत": 5691,
      "रार": 5692,
      "कारा": 5693,
      "कागज": 5694,
      "क्लो": 5695,
      "लाई": 5696,
      "लाCity": 5697,
      "लेटिन": 5698,
      "पाएं": 5699,
      "टागल": 5700,
      "प्चर": 5701,
      "मिश्र": 5702,
      "रूम": 5703,
      "पूरे": 5704,
      "अनुलंब": 5705,
      "अनुरोध": 5706,
      "टीटीएस": 5707,
      "निर्माता": 5708,
      "ग्रो": 5709,
      "चुनता": 5710,
      "सिव": 5711,
      "जीवित": 5712,
      "ick": 5713,
      "iceland": 5714,
      "ens": 5715,
      "शिशु": 5716,
      "आरपार": 5717,
      "सुपर": 5718,
      "श्रृंखला": 5719,
      "फ्रें": 5720,
      "टैम्": 5721,
      "अभिमुख": 5722,
      "खेलने": 5723,
      "ंढे": 5724,
      "इंचः": 5725,
      "एलएस": 5726,
      "ध्वज": 5727,
      "साइसर": 5728,
      "मिनट्स": 5729,
      "depart": 5730,
      "नेटस्केप": 5731,
      "guage": 5732,
      "भुगता": 5733,
      "साइटों": 5734,
      "ippin": 5735,
      "बढ़ाए": 5736,
      "क्लासिक": 5737,
      "sub": 5738,
      "subjects": 5739,
      "प्रस्तुति": 5740,
      "डेवलप": 5741,
      "बर्गCity": 5742,
      "tures": 5743,
      "शनिवार": 5744,
      "आयोजकः": 5745,
      "Voice": 5746,
      "valVoice": 5747,
      "रविवार": 5748,
      "वेषित": 5749,
      "vision": 5750,
      "ब्रॉउज": 5751,
      "Advanced": 5752,
      "बाह्य": 5753,
      "Lesson": 5754,
      "ढुॅ": 5755,
      "आवंटन": 5756,
      "तारामंडल": 5757,
      "philippin": 5758,
      "FestivalVoice": 5759,
      "NTLM": 5760,
      "अभिमुखन": 5761,
      "departments": 5762,
      "भुगतान": 5763,
      "philippines": 5764,
      "FestivalVoiceName": 5765,
      "300": 5766,
      "Balsa": 5767,
      "KDE": 5768,
      "Script": 5769,
      "Time": 5770,
      "ction": 5771,
      "fec": 5772,
      "host": 5773,
      "lict": 5774,
      "si": 5775,
      "ux": 5776,
      "ugu": 5777,
      "आर्क": 5778,
      "आखरी": 5779,
      "उर्ध्वाधर": 5780,
      "एकी": 5781,
      "चक्र": 5782,
      "तभी": 5783,
      "नौ": 5784,
      "बच": 5785,
      "बडी": 5786,
      "भ्र": 5787,
      "ीः": 5788,
      "ोड़": 5789,
      "केसीएम": 5790,
      "तारे": 5791,
      "संचरण": 5792,
      "सेल्टिक": 5793,
      "विल": 5794,
      "विस": 5795,
      "विस्": 5796,
      "नेम": 5797,
      "किलो": 5798,
      "पावर": 5799,
      "हार्": 5800,
      "हांग": 5801,
      "क्षक": 5802,
      "प्ली": 5803,
      "न्त": 5804,
      "न्दी": 5805,
      "राशि": 5806,
      "जोड": 5807,
      "सकें": 5808,
      "ष्ट्री": 5809,
      "स्टन": 5810,
      "aragu": 5811,
      "पताका": 5812,
      "ator": 5813,
      "पिजिन": 5814,
      "चिन्": 5815,
      "बिसात": 5816,
      "दर्शक": 5817,
      "शब्दों": 5818,
      "क्रियात्मक": 5819,
      "बेनाम": 5820,
      "चाहिएः": 5821,
      "used": 5822,
      "urugu": 5823,
      "दुक्की": 5824,
      "पूर्वाह्न": 5825,
      "mation": 5826,
      "सबक": 5827,
      "comp": 5828,
      "छुपाना": 5829,
      "दूसरी": 5830,
      "dev": 5831,
      "shader": 5832,
      "केडीएम": 5833,
      "बढ़ने": 5834,
      "Reply": 5835,
      "CalDAV": 5836,
      "sero": 5837,
      "डिफोल्ट": 5838,
      "Sync": 5839,
      "बैकएंड": 5840,
      "वर्गीकरण": 5841,
      "पार्टी": 5842,
      "हार्डवेयर": 5843,
      "ज़िप": 5844,
      "nicaragu": 5845,
      "पिक्समै": 5846,
      "Conflict": 5847,
      "GtkHTML": 5848,
      "जबाव": 5849,
      "शुरुआत": 5850,
      "ऑपरेटिंग": 5851,
      "लेबलों": 5852,
      "language": 5853,
      "झुकाव": 5854,
      "जीएनयू": 5855,
      "poland": 5856,
      "फ्लश": 5857,
      "डिक्लेरेशन": 5858,
      "vcf": 5859,
      "uruguay": 5860,
      "nicaragua": 5861,
      "पिक्समैप": 5862,
      "AM": 5863,
      "GB": 5864,
      "Gnu": 5865,
      "SD": 5866,
      "Sound": 5867,
      "ace": 5868,
      "balsa": 5869,
      "ities": 5870,
      "sof": 5871,
      "zim": 5872,
      "जरा": 5873,
      "बज": 5874,
      "यर्स": 5875,
      "रेज": 5876,
      "सदा": 5877,
      "ेंस": 5878,
      "कास्ट": 5879,
      "काल्स": 5880,
      "स्पॉ": 5881,
      "स्पर्": 5882,
      "लिं": 5883,
      "मान्": 5884,
      "दिखे": 5885,
      "वाँ": 5886,
      "क्षु": 5887,
      "साल": 5888,
      "क्रनाइज़": 5889,
      "न्टेशन": 5890,
      "टिकल": 5891,
      "लोगो": 5892,
      "सूचीः": 5893,
      "त्तम": 5894,
      "यूनी": 5895,
      "डीय": 5896,
      "रीCity": 5897,
      "बनाये": 5898,
      "इनबॉक्स": 5899,
      "लाइबे": 5900,
      "जूद": 5901,
      "ब्रो": 5902,
      "पाठः": 5903,
      "कैरो": 5904,
      "कैप्चर": 5905,
      "खेला": 5906,
      "खिंच": 5907,
      "टोन": 5908,
      "मीटिंग": 5909,
      "घटते": 5910,
      "river": 5911,
      "right": 5912,
      "लगायें": 5913,
      "belgi": 5914,
      "प्रिय": 5915,
      "पशॉट": 5916,
      "डॉक": 5917,
      "बरफweather": 5918,
      "सिंटेक्स": 5919,
      "सिंक्रनाइज़": 5920,
      "tools": 5921,
      "network": 5922,
      "ecure": 5923,
      "WebDAV": 5924,
      "SHA1": 5925,
      "scroll": 5926,
      "महीना": 5927,
      "ओवरराइ": 5928,
      "आसपड़": 5929,
      "इंगित": 5930,
      "निर्गमकः": 5931,
      "australia": 5932,
      "स्टाइलशीट": 5933,
      "Subject": 5934,
      "एक्जेंज": 5935,
      "मृदु": 5936,
      "मैनेजर": 5937,
      "automake": 5938,
      "current": 5939,
      "GnuPG": 5940,
      "soft": 5941,
      "belgium": 5942,
      "ओवरराइड": 5943,
      "आसपड़ोस": 5944,
      "70": 5945,
      "CN": 5946,
      "Copy": 5947,
      "Hebrew": 5948,
      "JP": 5949,
      "Object": 5950,
      "Sou": 5951,
      "bz": 5952,
      "iti": 5953,
      "kn": 5954,
      "sp": 5955,
      "¤": 5956,
      "अल्प": 5957,
      "आस्पेक्ट": 5958,
      "औप": 5959,
      "जस्ट": 5960,
      "तश्": 5961,
      "नक्ष": 5962,
      "नोर्": 5963,
      "बारा": 5964,
      "रखे": 5965,
      "षे": 5966,
      "सConstellation": 5967,
      "ताल": 5968,
      "हीत": 5969,
      "निषे": 5970,
      "लाना": 5971,
      "वार्": 5972,
      "साफ्ट": 5973,
      "मिया": 5974,
      "dout": 5975,
      "thail": 5976,
      "चुनो": 5977,
      "रोम": 5978,
      "stdout": 5979,
      "मुफ़्": 5980,
      "मुहाव": 5981,
      "बंधिक": 5982,
      "डेट": 5983,
      "हेड": 5984,
      "शीर्षों": 5985,
      "हटाए": 5986,
      "क्षेत्रों": 5987,
      "म्परिक": 5988,
      "अंडर": 5989,
      "नियर": 5990,
      "division": 5991,
      "चौथा": 5992,
      "एक्सेंज": 5993,
      "कनेक्टर": 5994,
      "मैथियास": 5995,
      "ंशः": 5996,
      "पुनःभारित": 5997,
      "खोजेंः": 5998,
      "पूछना": 5999,
      "ग्वे": 6000,
      "vers": 6001,
      "वर्तनीजांच": 6002,
      "प्रत्यक्ष": 6003,
      "संग्रहीत": 6004,
      "Import": 6005,
      "apps": 6006,
      "ज्यॉ": 6007,
      "cuba": 6008,
      "Forward": 6009,
      "बांटना": 6010,
      "odec": 6011,
      "अन्यों": 6012,
      "libgnomeprint": 6013,
      "लौटाता": 6014,
      "एडजस्ट": 6015,
      "आलेखीय": 6016,
      "कुंजियाँ": 6017,
      "minute": 6018,
      "dress": 6019,
      "स्थानांतरित": 6020,
      "सौंपा": 6021,
      "सचेतक": 6022,
      "refers": 6023,
      "author": 6024,
      "babwe": 6025,
      "Error": 6026,
      "ष्ट्रीय": 6027,
      "zimbabwe": 6028,
      "औपबंधिक": 6029,
      "तश्तरी": 6030,
      "नक्षत्र": 6031,
      "निषेधित": 6032,
      "thailand": 6033,
      "मुफ़्त": 6034,
      "मुहावरा": 6035,
      "libgnomeprintui": 6036,
      "64": 6037,
      "7z": 6038,
      "BD": 6039,
      "CID": 6040,
      "Priority": 6041,
      "RW": 6042,
      "Roll": 6043,
      "bol": 6044,
      "gt": 6045,
      "pix": 6046,
      "xz": 6047,
      "अध्या": 6048,
      "आठ": 6049,
      "एओ": 6050,
      "एपि": 6051,
      "छल्": 6052,
      "बहि": 6053,
      "मनो": 6054,
      "लटक": 6055,
      "काओ": 6056,
      "प्रवर्तन": 6057,
      "मारि": 6058,
      "लेCity": 6059,
      "वाल": 6060,
      "साव": 6061,
      "योगदान": 6062,
      "टिया": 6063,
      "ers": 6064,
      "स्तो": 6065,
      "rosoft": 6066,
      "अनुच्छेद": 6067,
      "अनुरेखी": 6068,
      "new": 6069,
      "ग्रूप": 6070,
      "गाढ़ा": 6071,
      "जोड़ते": 6072,
      "मिटायी": 6073,
      "icrosoft": 6074,
      "डेन": 6075,
      "मोनो": 6076,
      "ट्रिक": 6077,
      "सूचनाः": 6078,
      "ब्रु": 6079,
      "भेजी": 6080,
      "वैसा": 6081,
      "स्वत": 6082,
      "गोल": 6083,
      "raw": 6084,
      "ray": 6085,
      "गुणन": 6086,
      "formation": 6087,
      "dio": 6088,
      "समूहों": 6089,
      "सबर्ग": 6090,
      "एक्सपो": 6091,
      "बदलता": 6092,
      "मुखी": 6093,
      "मददगार": 6094,
      "पुनर्प्रेषित": 6095,
      "पारम्परिक": 6096,
      "पेंड": 6097,
      "सम्पादन": 6098,
      "धानी": 6099,
      "पहचानता": 6100,
      "इंटरफ़": 6101,
      "व्हाइट": 6102,
      "haiti": 6103,
      "DVI": 6104,
      "iff": 6105,
      "ENET": 6106,
      "लंबाईः": 6107,
      "स्लाइडशो": 6108,
      "फोलोअप": 6109,
      "PKCS12": 6110,
      "USENET": 6111,
      "full": 6112,
      "अर्थवान": 6113,
      "फोर्ट": 6114,
      "screen": 6115,
      "पुनरावर्ती": 6116,
      "romania": 6117,
      "जीपीएस": 6118,
      "ब्रिज": 6119,
      "Options": 6120,
      "icture": 6121,
      "Unix": 6122,
      "दिखता": 6123,
      "सर्वोत्तम": 6124,
      "BOX": 6125,
      "निकटस्थ": 6126,
      "generic": 6127,
      "मछली": 6128,
      "लिफाफाकृत": 6129,
      "एकीकृत": 6130,
      "यूनीकोड": 6131,
      "150": 6132,
      "Bug": 6133,
      "Big": 6134,
      "Diff": 6135,
      "GE": 6136,
      "GAL": 6137,
      "I8": 6138,
      "IR": 6139,
      "Jabber": 6140,
      "KO": 6141,
      "KR": 6142,
      "Microsoft": 6143,
      "Out": 6144,
      "Page": 6145,
      "bution": 6146,
      "cap": 6147,
      "lish": 6148,
      "sch": 6149,
      "tac": 6150,
      "uania": 6151,
      "अदृश्य": 6152,
      "इको": 6153,
      "ऑल्ट": 6154,
      "डन": 6155,
      "पन्": 6156,
      "बेज": 6157,
      "ब्यू": 6158,
      "बधा": 6159,
      "मण": 6160,
      "मल": 6161,
      "लता": 6162,
      "लार": 6163,
      "लName": 6164,
      "ॉं": 6165,
      "्रु": 6166,
      "मारी": 6167,
      "क्री": 6168,
      "डिटे": 6169,
      "होएं": 6170,
      "खों": 6171,
      "सकने": 6172,
      "रीडर": 6173,
      "बनायेगा": 6174,
      "सिड": 6175,
      "सिस": 6176,
      "रेशो": 6177,
      "शान": 6178,
      "मोज़ि": 6179,
      "जिन्": 6180,
      "टेम्प": 6181,
      "खोलेंः": 6182,
      "पेन": 6183,
      "ech": 6184,
      "म्बर": 6185,
      "टोप": 6186,
      "संख्याएं": 6187,
      "गुणक": 6188,
      "dial": 6189,
      "छापे": 6190,
      "नोबो": 6191,
      "देंः": 6192,
      "देंगे": 6193,
      "निष्पाद": 6194,
      "निष्पादन": 6195,
      "गतिशील": 6196,
      "सीमांत": 6197,
      "आँकड़े": 6198,
      "रद्दीकरण": 6199,
      "ithuania": 6200,
      "ख़त्म": 6201,
      "index": 6202,
      "parent": 6203,
      "चिपकाएं": 6204,
      "address": 6205,
      "tribution": 6206,
      "GPL": 6207,
      "व्यवसाय": 6208,
      "एल्जियम": 6209,
      "एल्गोरि": 6210,
      "ढूँढ": 6211,
      "ऑब्स": 6212,
      "ट्रिक्स": 6213,
      "एपीआई": 6214,
      "मेकफाइल": 6215,
      "प्लाट": 6216,
      "irst": 6217,
      "ज़ेनेरिक": 6218,
      "मोंटे": 6219,
      "भराई": 6220,
      "lands": 6221,
      "एस्ले": 6222,
      "value": 6223,
      "पनामा": 6224,
      "बच्चा": 6225,
      "minutes": 6226,
      "दायरा": 6227,
      "अस्तित्व": 6228,
      "media": 6229,
      "बचने": 6230,
      "KOI8": 6231,
      "बधाई": 6232,
      "मोज़िला": 6233,
      "180": 6234,
      "31": 6235,
      "3डी": 6236,
      "IRC": 6237,
      "bit": 6238,
      "go": 6239,
      "gr": 6240,
      "image": 6241,
      "px": 6242,
      "sum": 6243,
      "ving": 6244,
      "web": 6245,
      "इव": 6246,
      "उसी": 6247,
      "कना": 6248,
      "नName": 6249,
      "फू": 6250,
      "फंट": 6251,
      "फोल्ड": 6252,
      "वधि": 6253,
      "वजह": 6254,
      "होल्ड": 6255,
      "र्ण": 6256,
      "र्टो": 6257,
      "काउन्": 6258,
      "याकु": 6259,
      "स्टिंग": 6260,
      "हैComment": 6261,
      "हैPlease": 6262,
      "क्शन्स": 6263,
      "विपरी": 6264,
      "विभे": 6265,
      "ल्वा": 6266,
      "मातृ": 6267,
      "only": 6268,
      "लाक": 6269,
      "लाति": 6270,
      "लेस": 6271,
      "लेन्": 6272,
      "लेकCity": 6273,
      "देशा": 6274,
      "साधारण": 6275,
      "डिस्क्रि": 6276,
      "न्ड": 6277,
      "lar": 6278,
      "उपनामः": 6279,
      "रिकार्": 6280,
      "लेंस": 6281,
      "टीसीपी": 6282,
      "लीड": 6283,
      "nether": 6284,
      "मानः": 6285,
      "सर्ग": 6286,
      "प्रोजे": 6287,
      "ब्रै": 6288,
      "जबकि": 6289,
      "हटाता": 6290,
      "वैधता": 6291,
      "एसवीजी": 6292,
      "अधिकतर": 6293,
      "लैया": 6294,
      "पंक्तियां": 6295,
      "मीटर्स": 6296,
      "macs": 6297,
      "उत्तम": 6298,
      "लंबी": 6299,
      "पुनर्बहाल": 6300,
      "देखकर": 6301,
      "खिसकाने": 6302,
      "निकलने": 6303,
      "प्रबंधकName": 6304,
      "बोनोबो": 6305,
      "दूरदर्शी": 6306,
      "अंतर्गत": 6307,
      "अंतर्निर्मित": 6308,
      "गणक": 6309,
      "गणितीय": 6310,
      "बताता": 6311,
      "load": 6312,
      "खींचना": 6313,
      "मेटाडेटा": 6314,
      "सतल": 6315,
      "prefec": 6316,
      "linux": 6317,
      "mmc": 6318,
      "lzo": 6319,
      "नेविगेटर": 6320,
      "rowisofs": 6321,
      "आबंटन": 6322,
      "बराबर": 6323,
      "पृथक": 6324,
      "इंडेन्टेशन": 6325,
      "हाइपर": 6326,
      "STARTTLS": 6327,
      "थंडर": 6328,
      "अर्द्ध": 6329,
      "लोकेल": 6330,
      "Roller": 6331,
      "विपरीत": 6332,
      "विभेदन": 6333,
      "netherlands": 6334,
      "prefectures": 6335,
      "24": 6336,
      "47": 6337,
      "Bra": 6338,
      "Blu": 6339,
      "ESend": 6340,
      "Google": 6341,
      "John": 6342,
      "Non": 6343,
      "Sc": 6344,
      "Sign": 6345,
      "ak": 6346,
      "both": 6347,
      "driver": 6348,
      "lithuania": 6349,
      "mun": 6350,
      "sol": 6351,
      "अतुल्यकालिक": 6352,
      "आयता": 6353,
      "इनि": 6354,
      "उद": 6355,
      "कथन": 6356,
      "गंगा": 6357,
      "झों": 6358,
      "ड्यू": 6359,
      "थु": 6360,
      "मॅ": 6361,
      "महि": 6362,
      "र्ति": 6363,
      "कांग": 6364,
      "याहू": 6365,
      "क्वै": 6366,
      "कोस": 6367,
      "ताप": 6368,
      "ाइड": 6369,
      "लेक्स": 6370,
      "ंगी": 6371,
      "सादे": 6372,
      "मिक्स": 6373,
      "alities": 6374,
      "मेट": 6375,
      "रिप": 6376,
      "सीधा": 6377,
      "खोले": 6378,
      "यह्रास": 6379,
      "लीन": 6380,
      "ब्लॉग": 6381,
      "जीएम": 6382,
      "रोस": 6383,
      "पुछल्": 6384,
      "icip": 6385,
      "जिला": 6386,
      "टेमाला": 6387,
      "पीआई": 6388,
      "पीएस": 6389,
      "rela": 6390,
      "अधिभार": 6391,
      "लेखनीय": 6392,
      "हस्तांतरित": 6393,
      "ead": 6394,
      "ढूंढा": 6395,
      "दुस": 6396,
      "भेजेंः": 6397,
      "एमएस": 6398,
      "विधिः": 6399,
      "रेंट": 6400,
      "पूर्ववत": 6401,
      "active": 6402,
      "अतिलेखन": 6403,
      "क्सीजन": 6404,
      "ट्रैकस": 6405,
      "टाइटल": 6406,
      "recent": 6407,
      "खीचें": 6408,
      "ग्लो": 6409,
      "अवधिः": 6410,
      "umar": 6411,
      "HTTPS": 6412,
      "तेजी": 6413,
      "gtk22": 6414,
      "imal": 6415,
      "खुले": 6416,
      "plit": 6417,
      "लिनक्स": 6418,
      "ISDN": 6419,
      "प्लाज्": 6420,
      "बूलियन": 6421,
      "प्रकाशकीय": 6422,
      "बीजशब्दः": 6423,
      "लैंडिक": 6424,
      "फ्रां": 6425,
      "हमारे": 6426,
      "केआईजी": 6427,
      "सटीकता": 6428,
      "ages": 6429,
      "व्यक्तित्व": 6430,
      "अनुमापन": 6431,
      "तकनीक": 6432,
      "मूल्यह्रास": 6433,
      "सिंक्रनाइज़ेशन": 6434,
      "known": 6435,
      "अंडरस्कोर": 6436,
      "इंटरफ़ेस": 6437,
      "रिकार्डिंग": 6438,
      "Brasero": 6439,
      "ESendOptions": 6440,
      "municip": 6441,
      "महिना": 6442,
      "अधिभारण": 6443,
      "municipalities": 6444,
      "BE": 6445,
      "Mess": 6446,
      "Not": 6447,
      "Net": 6448,
      "Se": 6449,
      "catal": 6450,
      "grat": 6451,
      "log": 6452,
      "rill": 6453,
      "vel": 6454,
      "xt": 6455,
      "yrill": 6456,
      "¥": 6457,
      "ंज": 6458,
      "अण": 6459,
      "असंबंधित": 6460,
      "अच्छे": 6461,
      "आण": 6462,
      "आना": 6463,
      "एना": 6464,
      "ओएस": 6465,
      "कर्ष": 6466,
      "पत": 6467,
      "मला": 6468,
      "सनीय": 6469,
      "्वी": 6470,
      "र्साइसर": 6471,
      "केटीटीएस": 6472,
      "क्ल": 6473,
      "क्चर": 6474,
      "क्सिको": 6475,
      "नान": 6476,
      "संस्था": 6477,
      "सेन्": 6478,
      "विलग": 6479,
      "देह": 6480,
      "देते": 6481,
      "पाथी": 6482,
      "मिड": 6483,
      "राज": 6484,
      "टीप": 6485,
      "कुवै": 6486,
      "कृती": 6487,
      "सर्च": 6488,
      "वेव": 6489,
      "प्रायः": 6490,
      "entry": 6491,
      "डेविड": 6492,
      "गुजरा": 6493,
      "प्रोसे": 6494,
      "समाना": 6495,
      "पाठ्य": 6496,
      "पाठ्या": 6497,
      "लेखपत्र": 6498,
      "अंतरि": 6499,
      "फ़िक्स": 6500,
      "एसआई": 6501,
      "उनकी": 6502,
      "असफलता": 6503,
      "रहेः": 6504,
      "अवकाश": 6505,
      "फार्": 6506,
      "ques": 6507,
      "मैदान": 6508,
      "छुपायें": 6509,
      "ड्रॉ": 6510,
      "बुकमा": 6511,
      "च्छा": 6512,
      "भाषाओं": 6513,
      "चीज़": 6514,
      "शुरूआत": 6515,
      "निर्धारण": 6516,
      "पहचानने": 6517,
      "आईडीः": 6518,
      "चुनाव": 6519,
      "प्रभावित": 6520,
      "UTC": 6521,
      "एचएसटी": 6522,
      "प्रिंटर": 6523,
      "फॉन्ट": 6524,
      "बनाएगा": 6525,
      "उलटी": 6526,
      "लड़ीबद्ध": 6527,
      "संरेखित": 6528,
      "एक्सेर्साइसर": 6529,
      "घटाने": 6530,
      "लौटाया": 6531,
      "bookmar": 6532,
      "dbus": 6533,
      "छांटे": 6534,
      "टेलिपाथी": 6535,
      "आइसलैंडिक": 6536,
      "जबाब": 6537,
      "विश्वसनीय": 6538,
      "स्टेटस": 6539,
      "files": 6540,
      "एमडीआई": 6541,
      "Status": 6542,
      "तूफा": 6543,
      "पदावन": 6544,
      "पीडीएफ़": 6545,
      "दर्शाता": 6546,
      "video": 6547,
      "दहलीज": 6548,
      "सांख्यिकी": 6549,
      "मण्डल": 6550,
      "क्रोएशियाई": 6551,
      "ढुॅंढे": 6552,
      "काउन्टी": 6553,
      "क्वैरी": 6554,
      "yrillic": 6555,
      "अणु": 6556,
      "गुजराती": 6557,
      "पाठ्यांश": 6558,
      "175": 6559,
      "CP": 6560,
      "Des": 6561,
      "XD": 6562,
      "bin": 6563,
      "ep": 6564,
      "eel": 6565,
      "java": 6566,
      "pop": 6567,
      "txt": 6568,
      "ईस्ट": 6569,
      "जल": 6570,
      "जर्म": 6571,
      "टुक": 6572,
      "डम": 6573,
      "नू": 6574,
      "पला": 6575,
      "फन": 6576,
      "बजाना": 6577,
      "बाइट": 6578,
      "मजब": 6579,
      "लपेट": 6580,
      "ीला": 6581,
      "स्ने": 6582,
      "स्प्": 6583,
      "हैiCalImp": 6584,
      "प्रभा": 6585,
      "सेरो": 6586,
      "विल्": 6587,
      "ल्यूशन": 6588,
      "मानि": 6589,
      "ones": 6590,
      "onia": 6591,
      "निश": 6592,
      "देनी": 6593,
      "किक": 6594,
      "ड़ियों": 6595,
      "हाउ": 6596,
      "क्षति": 6597,
      "डिसक": 6598,
      "डिब्": 6599,
      "इसको": 6600,
      "टिम": 6601,
      "ंडी": 6602,
      "त्त": 6603,
      "लीनियर": 6604,
      "परिसर": 6605,
      "सियन": 6606,
      "रेकॉर्ड": 6607,
      "जीमेल": 6608,
      "arques": 6609,
      "संपर्कः": 6610,
      "जिसका": 6611,
      "ट्रो": 6612,
      "level": 6613,
      "सेटः": 6614,
      "शुभ": 6615,
      "क्रियान्": 6616,
      "जाएँगे": 6617,
      "गेलियन": 6618,
      "बीएसडी": 6619,
      "प्रतिच्छेद": 6620,
      "त्याग": 6621,
      "छोटी": 6622,
      "सकतेः": 6623,
      "फोकल": 6624,
      "नोवो": 6625,
      "चौवा": 6626,
      "न्यूमेरि": 6627,
      "मिलाः": 6628,
      "समूहः": 6629,
      "बदलते": 6630,
      "चौड़ाईः": 6631,
      "comarques": 6632,
      "ash": 6633,
      "अतिपरवलय": 6634,
      "बुलियन": 6635,
      "डोकु": 6636,
      "थीः": 6637,
      "सम्बद्ध": 6638,
      "आँख": 6639,
      "tain": 6640,
      "अक्षा": 6641,
      "हुईः": 6642,
      "टैगः": 6643,
      "मुद्रा": 6644,
      "टिप्स": 6645,
      "स्पेक्": 6646,
      "libisofs": 6647,
      "cument": 6648,
      "एन्कोड": 6649,
      "ivia": 6650,
      "INBOX": 6651,
      "पुनरावृत्": 6652,
      "ढांचा": 6653,
      "ठहराएँ": 6654,
      "अनुपातः": 6655,
      "अत्यवधि": 6656,
      "प्रस्तावित": 6657,
      "austria": 6658,
      "आएगा": 6659,
      "एमडी5": 6660,
      "data": 6661,
      "अवरोधित": 6662,
      "करीब": 6663,
      "अंजुता": 6664,
      "फेंटें": 6665,
      "जरुरत": 6666,
      "bolivia": 6667,
      "Bugzilla": 6668,
      "जिन्हें": 6669,
      "related": 6670,
      "catalonia": 6671,
      "आणविक": 6672,
      "bookmarks": 6673,
      "पदावनत": 6674,
      "जर्मनी": 6675,
      "मजबू": 6676,
      "डिसकनेक्टेड": 6677,
      "05": 6678,
      "18": 6679,
      "36": 6680,
      "Eng": 6681,
      "GConf": 6682,
      "Lib": 6683,
      "X11": 6684,
      "bal": 6685,
      "gar": 6686,
      "growisofs": 6687,
      "jar": 6688,
      "num": 6689,
      "आखि": 6690,
      "एडी": 6691,
      "एक्शन": 6692,
      "चन्द्र": 6693,
      "जहा": 6694,
      "टों": 6695,
      "ध्रु": 6696,
      "मस": 6697,
      "वें": 6698,
      "सस्": 6699,
      "िता": 6700,
      "ृह": 6701,
      "कां": 6702,
      "याम": 6703,
      "स्लेव": 6704,
      "हैंग": 6705,
      "कोर्स": 6706,
      "प्रदाय": 6707,
      "संजीवन": 6708,
      "विय": 6709,
      "नेई": 6710,
      "निचे": 6711,
      "tical": 6712,
      "लाय": 6713,
      "साम्बा": 6714,
      "मिनी": 6715,
      "योगिक": 6716,
      "नामक": 6717,
      "होल": 6718,
      "उपसर्ग": 6719,
      "रिस": 6720,
      "बाएं": 6721,
      "सीएसएस": 6722,
      "यूए": 6723,
      "लीटर": 6724,
      "स्टेंट": 6725,
      "तीर": 6726,
      "रोके": 6727,
      "रोCity": 6728,
      "शिफ्ट": 6729,
      "इनके": 6730,
      "डेशन": 6731,
      "ट्रम": 6732,
      "ज्ञानिक": 6733,
      "पीसी": 6734,
      "एंटी": 6735,
      "वैज्ञानिक": 6736,
      "जेपीईजी": 6737,
      "गेम": 6738,
      "पैनल": 6739,
      "कमांड्स": 6740,
      "cep": 6741,
      "पूर्वावलोकनः": 6742,
      "हिन्दी": 6743,
      "क्रमित": 6744,
      "सबुक": 6745,
      "पोस्टिंग": 6746,
      "फ्रीसेल": 6747,
      "स्ट्रि": 6748,
      "स्ट्रक्चर": 6749,
      "दिनः": 6750,
      "उसकी": 6751,
      "कॉन्क्वे": 6752,
      "छोड़ना": 6753,
      "जनवरी": 6754,
      "डाउनलोडेड": 6755,
      "comm": 6756,
      "जानकारीName": 6757,
      "लक्ष्यः": 6758,
      "acc": 6759,
      "छुपाने": 6760,
      "बहुविधि": 6761,
      "बुरा": 6762,
      "OFF": 6763,
      "पॉलिसी": 6764,
      "बॉडी": 6765,
      "न्सCity": 6766,
      "सामना": 6767,
      "पूछने": 6768,
      "दबाएं": 6769,
      "पाइन": 6770,
      "बजाया": 6771,
      "कामना": 6772,
      "फैनी": 6773,
      "वारंटी": 6774,
      "स्पेनी": 6775,
      "फोटोग्राफ": 6776,
      "जगहः": 6777,
      "उलटे": 6778,
      "अंकः": 6779,
      "कितनी": 6780,
      "appl": 6781,
      "iCalendar": 6782,
      "एफटीपी": 6783,
      "निरपेक्ष": 6784,
      "प्रस्तुत": 6785,
      "अनुकूलन": 6786,
      "घनत्व": 6787,
      "फ़ीड": 6788,
      "व्याख्यान": 6789,
      "lude": 6790,
      "स्टार्टअप": 6791,
      "VoIP": 6792,
      "1997": 6793,
      "दिखती": 6794,
      "settings": 6795,
      "862": 6796,
      "घूम": 6797,
      "ब्लॉकिंग": 6798,
      "जर्मन": 6799,
      "डिजिटल": 6800,
      "कॉम्बो": 6801,
      "True": 6802,
      "पढने": 6803,
      "तरीकाः": 6804,
      "पंक्तिबद्धता": 6805,
      "विस्फो": 6806,
      "Source": 6807,
      "ज्यॉर्जियाई": 6808,
      "टेम्पलेट": 6809,
      "dialog": 6810,
      "तापक्रम": 6811,
      "जीएमटी": 6812,
      "0x": 6813,
      "67": 6814,
      "Brow": 6815,
      "Col": 6816,
      "Class": 6817,
      "Lea": 6818,
      "PL": 6819,
      "TM": 6820,
      "Te": 6821,
      "Vis": 6822,
      "cz": 6823,
      "cam": 6824,
      "ning": 6825,
      "pana": 6826,
      "ron": 6827,
      "sing": 6828,
      "wat": 6829,
      "ँजी": 6830,
      "अम": 6831,
      "अक्ट": 6832,
      "ओब": 6833,
      "कमी": 6834,
      "खड़ी": 6835,
      "डैर": 6836,
      "भें": 6837,
      "लाइल": 6838,
      "र्जा": 6839,
      "कोडेक": 6840,
      "प्रशिक्षण": 6841,
      "नेक्ट": 6842,
      "जायन": 6843,
      "निस": 6844,
      "लास्ट": 6845,
      "पां": 6846,
      "पालन": 6847,
      "वाCity": 6848,
      "ank": 6849,
      "ant": 6850,
      "डिजायन": 6851,
      "न्ग": 6852,
      "न्ता": 6853,
      "alva": 6854,
      "उपफ़ोल्डर": 6855,
      "track": 6856,
      "information": 6857,
      "named": 6858,
      "वरे": 6859,
      "त्वरण": 6860,
      "डीआई": 6861,
      "ork": 6862,
      "परिक्रमण": 6863,
      "कुँजी": 6864,
      "रेस": 6865,
      "तीय": 6866,
      "प्रायोगिक": 6867,
      "मुझ": 6868,
      "enta": 6869,
      "इनलाइल": 6870,
      "डेमो": 6871,
      "जिसमे": 6872,
      "प्रोफाइ": 6873,
      "डिस्कनेक्ट": 6874,
      "पट्टियाँ": 6875,
      "एवोल्यूशनअप्रत्याशित": 6876,
      "कैरेक्": 6877,
      "बेन": 6878,
      "बेसिक": 6879,
      "म्बिया": 6880,
      "कूटशब्दः": 6881,
      "टोरेंट": 6882,
      "गुणा": 6883,
      "हस्ताक्षरः": 6884,
      "force": 6885,
      "forward": 6886,
      "लॉगिंग": 6887,
      "सीडीडीबी": 6888,
      "पोलिस": 6889,
      "ट्रैकिंग": 6890,
      "2008": 6891,
      "लंबे": 6892,
      "compr": 6893,
      "पुनर्निर्देश": 6894,
      "बुले": 6895,
      "बढ़िया": 6896,
      "केडीई४": 6897,
      "table": 6898,
      "चलता": 6899,
      "अंतर्वेषित": 6900,
      "जैंगो": 6901,
      "दरजा": 6902,
      "टैग्स": 6903,
      "लंबबत": 6904,
      "ग्वा": 6905,
      "sys": 6906,
      "अल्जी": 6907,
      "बताएँ": 6908,
      "location": 6909,
      "मार्ग": 6910,
      "विजेट्स": 6911,
      "आकाशगंगा": 6912,
      "सेकण्डों": 6913,
      "ढूँढ़ने": 6914,
      "implies": 6915,
      "नॉन": 6916,
      "स्टीफन": 6917,
      "टेलिफोन": 6918,
      "रेंडरिंग": 6919,
      "आरोहण": 6920,
      "GtkSource": 6921,
      "आटोडिटे": 6922,
      "केआईओ": 6923,
      "अंजुटा": 6924,
      "credit": 6925,
      "टनेलिंग": 6926,
      "फारसी": 6927,
      "Entering": 6928,
      "कैनवास": 6929,
      "डब्ल्यू": 6930,
      "Outlook": 6931,
      "tacts": 6932,
      "डिस्क्रिप्शन": 6933,
      "प्लाज्मा": 6934,
      "कर्षण": 6935,
      "XDG": 6936,
      "डिब्बा": 6937,
      "स्पेक्ट्रम": 6938,
      "पुनरावृत्ति": 6939,
      "TrueType": 6940,
      "Leaving": 6941,
      "Visual": 6942,
      "czech": 6943,
      "panama": 6944,
      "waters": 6945,
      "अक्टू": 6946,
      "डैरक्टरी": 6947,
      "भेंजे": 6948,
      "कैरेक्टर": 6949,
      "0f": 6950,
      "1x": 6951,
      "DTM": 6952,
      "ER": 6953,
      "Icon": 6954,
      "OS": 6955,
      "Pur": 6956,
      "PAT": 6957,
      "Start": 6958,
      "Tab": 6959,
      "df": 6960,
      "ds": 6961,
      "duration": 6962,
      "ekiga": 6963,
      "foo": 6964,
      "kbit": 6965,
      "mu": 6966,
      "असंपीडित": 6967,
      "अनियंत्रित": 6968,
      "एर": 6969,
      "ऐं": 6970,
      "गृह": 6971,
      "घो": 6972,
      "जल्": 6973,
      "थ्म": 6974,
      "धनात्मक": 6975,
      "नस": 6976,
      "प्यू": 6977,
      "पच्": 6978,
      "लक्": 6979,
      "सौर": 6980,
      "हंग": 6981,
      "होल्": 6982,
      "१२": 6983,
      "कान्": 6984,
      "कोमो": 6985,
      "नासा": 6986,
      "प्रवा": 6987,
      "ल्फ": 6988,
      "मांड": 6989,
      "देखि": 6990,
      "लेती": 6991,
      "वाल्": 6992,
      "वाक़": 6993,
      "ann": 6994,
      "क्रीक": 6995,
      "समरूप": 6996,
      "रिलीज": 6997,
      "बाधित": 6998,
      "ert": 6999,
      "inian": 7000,
      "यूक्रे": 7001,
      "अनुमो": 7002,
      "ब्लैं": 7003,
      "र्कCity": 7004,
      "कुहरा": 7005,
      "रेड": 7006,
      "स्कCity": 7007,
      "पूर्वी": 7008,
      "जीता": 7009,
      "अपडेट": 7010,
      "डेल्टा": 7011,
      "कॉन": 7012,
      "oman": 7013,
      "योजन": 7014,
      "पंचांगः": 7015,
      "चेहरा": 7016,
      "स्वरूपित": 7017,
      "आईसीसी": 7018,
      "सुडोकु": 7019,
      "स्वीकृति": 7020,
      "लाइनों": 7021,
      "पैमाना": 7022,
      "चाहिये": 7023,
      "पुनरार": 7024,
      "फ़िंगरप्रिंट": 7025,
      "टोकरी": 7026,
      "ढूं": 7027,
      "नक़ली": 7028,
      "प्रोग्रामः": 7029,
      "फाल": 7030,
      "कंद": 7031,
      "ask": 7032,
      "भारत": 7033,
      "निकल": 7034,
      "व्यस्तः": 7035,
      "कलर": 7036,
      "ditional": 7037,
      "disc": 7038,
      "स्वामी": 7039,
      "गहरे": 7040,
      "पिक्सेल्स": 7041,
      "उपभोक्ताओं": 7042,
      "मार्च": 7043,
      "भरता": 7044,
      "सकेगा": 7045,
      "सुधारें": 7046,
      "वाइज": 7047,
      "टाइमआउट": 7048,
      "धुंधला": 7049,
      "दाहिनी": 7050,
      "111": 7051,
      "krainian": 7052,
      "रैण्डर": 7053,
      "आंधी": 7054,
      "गुरूमुखी": 7055,
      "फ्रांस": 7056,
      "टाउनCity": 7057,
      "मैसेज": 7058,
      "श्रेणियाँ": 7059,
      "त्वरित": 7060,
      "आरंभीकृत": 7061,
      "रियॉट": 7062,
      "nickname": 7063,
      "ReplyForward": 7064,
      "डीयॉं": 7065,
      "Copyright": 7066,
      "एल्गोरिथ्म": 7067,
      "एस्लेरियॉट": 7068,
      "आयताकार": 7069,
      "Network": 7070,
      "Search": 7071,
      "कुवैत": 7072,
      "बुकमार्क": 7073,
      "शुभकामना": 7074,
      "English": 7075,
      "आखिरी": 7076,
      "कॉन्क्वेरर": 7077,
      "application": 7078,
      "Browser": 7079,
      "ओबलास्ट": 7080,
      "मुझसे": 7081,
      "प्रोफाइलिंग": 7082,
      "DTMF": 7083,
      "Purge": 7084,
      "पच्ची": 7085,
      "देखिए": 7086,
      "वाक़ई": 7087,
      "अनुमोदन": 7088,
      "पुनरारंभ": 7089,
      "35": 7090,
      "Austr": 7091,
      "Cdr": 7092,
      "De": 7093,
      "NG": 7094,
      "OU": 7095,
      "PNG": 7096,
      "Roman": 7097,
      "SMS": 7098,
      "Yacc": 7099,
      "eame": 7100,
      "gbb": 7101,
      "ivers": 7102,
      "ps": 7103,
      "rrg": 7104,
      "sur": 7105,
      "wi": 7106,
      "¤": 7107,
      "¤": 7108,
      "ंटिंग": 7109,
      "अती": 7110,
      "आसं": 7111,
      "इम्": 7112,
      "ऑकुल": 7113,
      "ओवी": 7114,
      "ग्या": 7115,
      "घे": 7116,
      "डबल": 7117,
      "थCity": 7118,
      "दसवां": 7119,
      "धक": 7120,
      "बर्क": 7121,
      "बक्स": 7122,
      "मं": 7123,
      "महा": 7124,
      "यट": 7125,
      "र्डिंग": 7126,
      "क्लू": 7127,
      "नाक": 7128,
      "विलंब": 7129,
      "नेfrance": 7130,
      "मात्र": 7131,
      "देर": 7132,
      "पाल": 7133,
      "स्थल": 7134,
      "उपशीर्षक": 7135,
      "राना": 7136,
      "रास्ता": 7137,
      "राCity": 7138,
      "एकत्र": 7139,
      "जोडीयॉं": 7140,
      "iname": 7141,
      "document": 7142,
      "लीCity": 7143,
      "मानों": 7144,
      "ग्रीन": 7145,
      "द्वी": 7146,
      "सहेजन": 7147,
      "सहेजता": 7148,
      "जीलैंड": 7149,
      "रोलर": 7150,
      "ज़्": 7151,
      "ence": 7152,
      "atch": 7153,
      "पिल": 7154,
      "हेल": 7155,
      "बिन": 7156,
      "बियाई": 7157,
      "आरसी": 7158,
      "पृष्ठो": 7159,
      "गोली": 7160,
      "प्रमाणत्र": 7161,
      "separ": 7162,
      "दोस्त": 7163,
      "url": 7164,
      "जाएंगी": 7165,
      "न्यूट्र": 7166,
      "हिए": 7167,
      "दियाः": 7168,
      "स्थानीयकृत": 7169,
      "choo": 7170,
      "स्वतःपूर्ण": 7171,
      "वर्णमाला": 7172,
      "मैथ": 7173,
      "डेस्कटोप": 7174,
      "सेंकेंड": 7175,
      "context": 7176,
      "been": 7177,
      "हुआः": 7178,
      "डोर": 7179,
      "चरः": 7180,
      "निकाला": 7181,
      "लुआ": 7182,
      "अंतर्क्रियात्मक": 7183,
      "02d": 7184,
      "गणित": 7185,
      "ड्राइंग": 7186,
      "प्रकाशन": 7187,
      "down": 7188,
      "पर्ल": 7189,
      "pres": 7190,
      "which": 7191,
      "local": 7192,
      "डॉयल": 7193,
      "ग्रेब": 7194,
      "मार्कर": 7195,
      "MacG": 7196,
      "MacRoman": 7197,
      "रिंगिंग": 7198,
      "ORIG": 7199,
      "स्पैन": 7200,
      "टाइमर": 7201,
      "निकालने": 7202,
      "Maildir": 7203,
      "सृजक": 7204,
      "पुनरावृत्त": 7205,
      "चयनीय": 7206,
      "ETree": 7207,
      "स्पष्ट": 7208,
      "स्पलाइन": 7209,
      "बौद्": 7210,
      "आर्गुमेंट": 7211,
      "आरोह": 7212,
      "वृह": 7213,
      "कंपाइलर": 7214,
      "कम्पो": 7215,
      "पदार्थ": 7216,
      "फ्लैशकार्ड": 7217,
      "त्वरक": 7218,
      "आर्गुमेंट्सः": 7219,
      "Arch": 7220,
      "पड़ेगा": 7221,
      "buf": 7222,
      "ऑप्टिकल": 7223,
      "निकोसिया": 7224,
      "शॉर्टकट्स": 7225,
      "अध्यारोहित": 7226,
      "पन्ना": 7227,
      "बेजोड़": 7228,
      "मॅक": 7229,
      "प्रोसेसर": 7230,
      "स्नेपशॉट": 7231,
      "मानिटर": 7232,
      "न्यूमेरिक": 7233,
      "मजबूत": 7234,
      "सस्पेंड": 7235,
      "प्यूर्टो": 7236,
      "ओबलास्टukraine": 7237,
      "eamer": 7238,
      "rrggbb": 7239,
      "suriname": 7240,
      "अतीत": 7241,
      "आसंधि": 7242,
      "ऑकुलर": 7243,
      "1ला": 7244,
      "2f": 7245,
      "3d": 7246,
      "Book": 7247,
      "Cre": 7248,
      "Ev": 7249,
      "Face": 7250,
      "Me": 7251,
      "Make": 7252,
      "Pop": 7253,
      "Tri": 7254,
      "Use": 7255,
      "fi": 7256,
      "ls": 7257,
      "mong": 7258,
      "pip": 7259,
      "sk": 7260,
      "salva": 7261,
      "xy": 7262,
      "अठ": 7263,
      "अपरा": 7264,
      "अच्छा": 7265,
      "आफ": 7266,
      "इस्ता": 7267,
      "ईडाक": 7268,
      "ऊर्जा": 7269,
      "एपर्": 7270,
      "गCity": 7271,
      "बफ़र": 7272,
      "मनीला": 7273,
      "सक्र": 7274,
      "़ी": 7275,
      "र्स्क": 7276,
      "काCity": 7277,
      "स्ला": 7278,
      "स्टिक": 7279,
      "स्नू": 7280,
      "क्टो": 7281,
      "प्रवेश": 7282,
      "संगीत": 7283,
      "विचार": 7284,
      "विज़े": 7285,
      "विहीन": 7286,
      "नेCity": 7287,
      "ल्क": 7288,
      "देती": 7289,
      "ारहवां": 7290,
      "किट": 7291,
      "लेगा": 7292,
      "लेवल": 7293,
      "पाश्": 7294,
      "देशः": 7295,
      "चालों": 7296,
      "प्टर": 7297,
      "प्वाइ": 7298,
      "मिस": 7299,
      "मिरर": 7300,
      "डिट": 7301,
      "डिस्": 7302,
      "सूत्र": 7303,
      "एकमात्र": 7304,
      "रूपरे": 7305,
      "रिको": 7306,
      "दावा": 7307,
      "ese": 7308,
      "बास्ति": 7309,
      "नीसवां": 7310,
      "यूटि": 7311,
      "टीसी": 7312,
      "गाय": 7313,
      "गाने": 7314,
      "कार्यक्षेत्र": 7315,
      "रेडि": 7316,
      "पंद्र": 7317,
      "पंहुच": 7318,
      "अपे": 7319,
      "eng": 7320,
      "फिग": 7321,
      "फिस": 7322,
      "जिओ": 7323,
      "चिंग": 7324,
      "कॉल्स": 7325,
      "अग्": 7326,
      "गेशन": 7327,
      "आईएन": 7328,
      "तुर": 7329,
      "olia": 7330,
      "पहलेPlay": 7331,
      "बेCity": 7332,
      "खाताः": 7333,
      "प्रतिस्थापन": 7334,
      "अभिगम": 7335,
      "संख्याओं": 7336,
      "each": 7337,
      "चौद": 7338,
      "matical": 7339,
      "भूलें": 7340,
      "हिला": 7341,
      "जानकारि": 7342,
      "समाप्तः": 7343,
      "शीर्षकविहीन": 7344,
      "इंस्टेंट": 7345,
      "शीर्षिकाः": 7346,
      "pass": 7347,
      "आवृति": 7348,
      "कंटेनर": 7349,
      "मैन": 7350,
      "मैनु": 7351,
      "एनकोडर": 7352,
      "कचरे": 7353,
      "पुनःप्रारंभ": 7354,
      "शोर": 7355,
      "सनCity": 7356,
      "जमाएँ": 7357,
      "सीमाः": 7358,
      "सॉक्स": 7359,
      "लुप्त": 7360,
      "सरली": 7361,
      "फेसबुक": 7362,
      "उन्नीसवां": 7363,
      "पायाः": 7364,
      "लेबलः": 7365,
      "पश्च": 7366,
      "timeter": 7367,
      "अल्बा": 7368,
      "डेलिवरी": 7369,
      "व्याइस": 7370,
      "समानता": 7371,
      "परिवर्धितः": 7372,
      "आवृत्तियों": 7373,
      "छाँट": 7374,
      "anager": 7375,
      "सिंगा": 7376,
      "अन्वेष": 7377,
      "बांये": 7378,
      "छांटने": 7379,
      "ओवरव्यू": 7380,
      "Action": 7381,
      "पुष्टिकरण": 7382,
      "माइक्रोसाफ्ट": 7383,
      "स्पति": 7384,
      "अंदाज": 7385,
      "पश्चिम": 7386,
      "अभिलेखों": 7387,
      "grammatical": 7388,
      "विंब": 7389,
      "plugins": 7390,
      "एसएसएल": 7391,
      "अंग्रेज़ी": 7392,
      "वुड": 7393,
      "फैलाया": 7394,
      "सजावट": 7395,
      "डॉलरName": 7396,
      "भ्रमण": 7397,
      "स्पॉट": 7398,
      "नोर्डिक": 7399,
      "देशान्तर": 7400,
      "Screen": 7401,
      "Messages": 7402,
      "ड्रॉप": 7403,
      "प्रभावी": 7404,
      "टिमटि": 7405,
      "command": 7406,
      "GtkSourceView": 7407,
      "यूक्रेनी": 7408,
      "फ़िंगरप्रिंटः": 7409,
      "ढूंढ़ने": 7410,
      "बर्कले": 7411,
      "बौद्धिक": 7412,
      "वृहस्पति": 7413,
      "Facebook": 7414,
      "mongolia": 7415,
      "salvador": 7416,
      "अठारहवां": 7417,
      "सक्रीय": 7418,
      "रूपरेखा": 7419,
      "आईएनडीआई": 7420,
      "मैनुअल": 7421,
      "1C": 7422,
      "3x": 7423,
      "8oe": 7424,
      "Auth": 7425,
      "DIG": 7426,
      "EST": 7427,
      "Mut": 7428,
      "RDF": 7429,
      "SMIME": 7430,
      "Sort": 7431,
      "TR": 7432,
      "TS": 7433,
      "TTY": 7434,
      "UE": 7435,
      "Up": 7436,
      "Zip": 7437,
      "azer": 7438,
      "cKey": 7439,
      "codec": 7440,
      "game": 7441,
      "hindi": 7442,
      "ijan": 7443,
      "ken": 7444,
      "mh": 7445,
      "mon": 7446,
      "pm": 7447,
      "port": 7448,
      "wo": 7449,
      "ंबुल": 7450,
      "इक्की": 7451,
      "कह": 7452,
      "कटा": 7453,
      "गाइड": 7454,
      "चं": 7455,
      "छब्": 7456,
      "छठा": 7457,
      "ठाइ": 7458,
      "दस": 7459,
      "धै": 7460,
      "नवां": 7461,
      "पक्ष": 7462,
      "फर्": 7463,
      "बें": 7464,
      "भण्ड": 7465,
      "मय": 7466,
      "रहें": 7467,
      "सल्वा": 7468,
      "ियाई": 7469,
      "१०": 7470,
      "याज": 7471,
      "यांग": 7472,
      "स्त्र": 7473,
      "केना": 7474,
      "केटोरेंट": 7475,
      "हैवन": 7476,
      "कोना": 7477,
      "प्रदा": 7478,
      "प्रणा": 7479,
      "लियो": 7480,
      "विस्थापन": 7481,
      "विलुप्त": 7482,
      "मां": 7483,
      "माटी": 7484,
      "निचले": 7485,
      "कीवर्ड": 7486,
      "किं": 7487,
      "किस्म": 7488,
      "किस्तान": 7489,
      "हांत": 7490,
      "चात्य": 7491,
      "टाना": 7492,
      "मियो": 7493,
      "alert": 7494,
      "रिपब्लिक": 7495,
      "रिकॉर्ड": 7496,
      "तेइसवां": 7497,
      "तेरहवां": 7498,
      "बार्": 7499,
      "डाले": 7500,
      "डाउस": 7501,
      "लोक": 7502,
      "लोकल": 7503,
      "परिमाण": 7504,
      "सहारा": 7505,
      "baijan": 7506,
      "कुमारी": 7507,
      "स्टैश": 7508,
      "डाकबॉक्स": 7509,
      "टेलेक्स": 7510,
      "पीटर": 7511,
      "rement": 7512,
      "अधिकार": 7513,
      "क्रियाशील": 7514,
      "जेड": 7515,
      "स्वसमापन": 7516,
      "कूटलेखन": 7517,
      "000": 7518,
      "प्रमाणित": 7519,
      "मदः": 7520,
      "बारहवां": 7521,
      "खिक": 7522,
      "पैगो": 7523,
      "दूक": 7524,
      "टोंगा": 7525,
      "उपयोक्ताओं": 7526,
      "Comic": 7527,
      "उनतीसवां": 7528,
      "छापी": 7529,
      "token": 7530,
      "पोर्टो": 7531,
      "अनुप्रयोगः": 7532,
      "get": 7533,
      "निष्कर्षण": 7534,
      "जिसको": 7535,
      "मुलाकातों": 7536,
      "सत्रहवां": 7537,
      "पहुंचा": 7538,
      "लागिन": 7539,
      "आवधिक": 7540,
      "लक्ष्यनाम": 7541,
      "unction": 7542,
      "सेंसि": 7543,
      "ब्रेसेरो": 7544,
      "ब्राउजर": 7545,
      "व्यस्तता": 7546,
      "श्रेय": 7547,
      "सामने": 7548,
      "निकाली": 7549,
      "चलने": 7550,
      "धातु": 7551,
      "होमपेज": 7552,
      "सप्ताहांत": 7553,
      "सातवां": 7554,
      "यूआरआइ": 7555,
      "ister": 7556,
      "कारणः": 7557,
      "प्रशस्ति": 7558,
      "इंटरपो": 7559,
      "व्ही": 7560,
      "Calendar": 7561,
      "बताए": 7562,
      "उपयोगकर्ताओं": 7563,
      "तालाकित": 7564,
      "EXIF": 7565,
      "जिनमें": 7566,
      "अलबर्ट": 7567,
      "सन्दर्भ": 7568,
      "बर्फीला": 7569,
      "सादापाठ": 7570,
      "फ़्लैश": 7571,
      "ऑफस्क्रीन": 7572,
      "सत्ताइसवां": 7573,
      "preview": 7574,
      "अट्ठाइ": 7575,
      "नुसार": 7576,
      "सुरक्षाः": 7577,
      "एफओवी": 7578,
      "स्टेन": 7579,
      "बाइसवां": 7580,
      "दिवसः": 7581,
      "सीसीः": 7582,
      "जीवनसाथ": 7583,
      "SHA256": 7584,
      "EncKey": 7585,
      "स्पैमएस्": 7586,
      "लौटाएँ": 7587,
      "आरेखण": 7588,
      "Accep": 7589,
      "सोलहवां": 7590,
      "माइक्रोसॉफ्ट": 7591,
      "पांचवा": 7592,
      "255": 7593,
      "डेवहेल्प": 7594,
      "lzma": 7595,
      "sending": 7596,
      "Apparent": 7597,
      "आइलैंडCity": 7598,
      "इंडियानापोलिस": 7599,
      "चौबीसवां": 7600,
      "बदलावों": 7601,
      "CRAM": 7602,
      "हमारी": 7603,
      "roller": 7604,
      "निरस्तीकरण": 7605,
      "JavaScript": 7606,
      "पहेली": 7607,
      "सटीक": 7608,
      "दुर्घटना": 7609,
      "दुर्बल": 7610,
      "एनक्रिप्शन": 7611,
      "increment": 7612,
      "Prefs": 7613,
      "folders": 7614,
      "सेरिफ": 7615,
      "सेरिफ़": 7616,
      "zooming": 7617,
      "असली": 7618,
      "फ़ैक्स": 7619,
      "चौडाईः": 7620,
      "OfTheMeeting": 7621,
      "centimeter": 7622,
      "board": 7623,
      "बाकीः": 7624,
      "लुइसविले": 7625,
      "CRLF": 7626,
      "gconfd": 7627,
      "इकतीसवां": 7628,
      "ensity": 7629,
      "स्पर्श": 7630,
      "क्षुद्र": 7631,
      "लाइबेरी": 7632,
      "divisions": 7633,
      "आठवां": 7634,
      "लटकती": 7635,
      "झोंके": 7636,
      "समानांतर": 7637,
      "अंतरिम": 7638,
      "Desktop": 7639,
      "जहाज": 7640,
      "आटोडिटेक्ट": 7641,
      "हंगरी": 7642,
      "पच्चीसवां": 7643,
      "ग्यारहवां": 7644,
      "Archived": 7645,
      "अपराह्न": 7646,
      "इस्तांबुल": 7647,
      "स्नूज़": 7648,
      "पाश्चात्य": 7649,
      "पंद्रहवां": 7650,
      "अग्नि": 7651,
      "तुरंत": 7652,
      "चौदहवां": 7653,
      "सरलीकृत": 7654,
      "DIGEST": 7655,
      "Mutt": 7656,
      "SMIMEEncKey": 7657,
      "azerbaijan": 7658,
      "इक्कीसवां": 7659,
      "छब्बीसवां": 7660,
      "धैर्य": 7661,
      "भण्डार": 7662,
      "प्रणाली": 7663,
      "डाउसन": 7664,
      "सप्ताहांतों": 7665,
      "अट्ठाइसवां": 7666,
      "स्पैमएस्सेसिन": 7667,
      "Accepted": 7668,
      "Apparently": 7669,
      "SMIMEEncKeyPrefs": 7670,
      "17": 7671,
      "40": 7672,
      "512": 7673,
      "Cyrillic": 7674,
      "GObject": 7675,
      "If": 7676,
      "Org": 7677,
      "Pr": 7678,
      "Pla": 7679,
      "ROM": 7680,
      "Split": 7681,
      "Ukrainian": 7682,
      "Val": 7683,
      "Ver": 7684,
      "cue": 7685,
      "hu": 7686,
      "kcm": 7687,
      "mk": 7688,
      "my": 7689,
      "picture": 7690,
      "ren": 7691,
      "year": 7692,
      "एस्ट": 7693,
      "ऑटो": 7694,
      "कName": 7695,
      "छर": 7696,
      "छैतिज": 7697,
      "टCity": 7698,
      "तं": 7699,
      "धनीय": 7700,
      "पढे": 7701,
      "बरी": 7702,
      "मती": 7703,
      "लरी": 7704,
      "वहां": 7705,
      "िज": 7706,
      "ुअल": 7707,
      "ेय": 7708,
      "ेबल": 7709,
      "ौरी": 7710,
      "२४": 7711,
      "कोरिया": 7712,
      "प्रमुख": 7713,
      "प्रक्रमित": 7714,
      "संहत": 7715,
      "लिप": 7716,
      "लिवर": 7717,
      "लिक्स": 7718,
      "विंड": 7719,
      "ाइटेबल": 7720,
      "meth": 7721,
      "कीरिंग": 7722,
      "लान": 7723,
      "पाला": 7724,
      "ड़क": 7725,
      "फ़ाइलतंत्र": 7726,
      "चार्": 7727,
      "टापिक": 7728,
      "साCity": 7729,
      "alk": 7730,
      "रात्रि": 7731,
      "टिकन": 7732,
      "रूद्ध": 7733,
      "रिन": 7734,
      "रिसेट": 7735,
      "नीCity": 7736,
      "open": 7737,
      "लोअर": 7738,
      "role": 7739,
      "क्रिप्": 7740,
      "other": 7741,
      "वीय": 7742,
      "निर्गम": 7743,
      "ब्लू": 7744,
      "ब्याज": 7745,
      "than": 7746,
      "NameOfThe": 7747,
      "कुरूप": 7748,
      "सिबि": 7749,
      "कृष्ट": 7750,
      "जीते": 7751,
      "रोमियो": 7752,
      "वेशित": 7753,
      "वेटिकन": 7754,
      "र्थी": 7755,
      "enti": 7756,
      "शिक": 7757,
      "भाज्य": 7758,
      "फिल": 7759,
      "पिघ": 7760,
      "पियर": 7761,
      "डेनिय": 7762,
      "मोड़": 7763,
      "मोजूद": 7764,
      "let": 7765,
      "मेलः": 7766,
      "क्रियाओं": 7767,
      "जाएँComment": 7768,
      "जेट": 7769,
      "गीली": 7770,
      "सुपु": 7771,
      "परियोजनाः": 7772,
      "पैक": 7773,
      "radio": 7774,
      "बीसीसी": 7775,
      "ofuser": 7776,
      "टैब्स": 7777,
      "णीय": 7778,
      "forge": 7779,
      "उनमें": 7780,
      "dim": 7781,
      "खेलः": 7782,
      "न्यून": 7783,
      "लॉगरि": 7784,
      "हिस्टो": 7785,
      "युक्तweather": 7786,
      "RSET": 7787,
      "सबटाइटल": 7788,
      "्सCity": 7789,
      "जाँचना": 7790,
      "एक्सएम": 7791,
      "एक्सचेंज": 7792,
      "उत्कृष्ट": 7793,
      "जुल": 7794,
      "छुपे": 7795,
      "इंस्पे": 7796,
      "फाउ": 7797,
      "एनजी": 7798,
      "लियासिंग": 7799,
      "छुपाता": 7800,
      "ड्रे": 7801,
      "निकलें": 7802,
      "मालः": 7803,
      "निर्धारक": 7804,
      "अंतर्वेशित": 7805,
      "चित्रों": 7806,
      "Reg": 7807,
      "लगाया": 7808,
      "लगातार": 7809,
      "belize": 7810,
      "भुलैया": 7811,
      "रहनी": 7812,
      "संशोधनीय": 7813,
      "libburn": 7814,
      "एचए": 7815,
      "स्टार्स": 7816,
      "माइकल": 7817,
      "lock": 7818,
      "रुप": 7819,
      "डिरेक्ट्रीज़": 7820,
      "सिंबा": 7821,
      "MeetingRes": 7822,
      "अद्यतनीकरण": 7823,
      "EXT": 7824,
      "स्विचर": 7825,
      "कितना": 7826,
      "बिंदुओं": 7827,
      "घुसाई": 7828,
      "direction": 7829,
      "एक्सेस": 7830,
      "239": 7831,
      "ccess": 7832,
      "बांयी": 7833,
      "फोर्डCity": 7834,
      "उच्चतर": 7835,
      "रीराइटेबल": 7836,
      "GTKmm": 7837,
      "bugzilla": 7838,
      "आनंद": 7839,
      "आलेखी": 7840,
      "swit": 7841,
      "मंगो": 7842,
      "उद्धृत": 7843,
      "गेंदों": 7844,
      "कुंजियों": 7845,
      "पृथ्वी": 7846,
      "आयाम": 7847,
      "इंडेक्स": 7848,
      "बाउंस": 7849,
      "plain": 7850,
      "पड़ेगी": 7851,
      "संतुलन": 7852,
      "रजिस्टर": 7853,
      "रिवरCity": 7854,
      "दुहरायें": 7855,
      "sourceforge": 7856,
      "डेवलपर्स": 7857,
      "SDL": 7858,
      "योगदानकर्ता": 7859,
      "ढूँढें": 7860,
      "काउन्टीsweden": 7861,
      "लुआंडा": 7862,
      "Evolution": 7863,
      "गायब": 7864,
      "जानकारियाँ": 7865,
      "wodim": 7866,
      "सेंसिटिव": 7867,
      "Organ": 7868,
      "method": 7869,
      "NameOfTheUser": 7870,
      "हिस्टोग्राम": 7871,
      "इंस्पेक्टर": 7872,
      "MeetingResp": 7873,
      "21": 7874,
      "Canc": 7875,
      "DB": 7876,
      "Feb": 7877,
      "KB": 7878,
      "Lu": 7879,
      "Min": 7880,
      "Other": 7881,
      "PS": 7882,
      "Pro": 7883,
      "SCS": 7884,
      "TX": 7885,
      "TEXT": 7886,
      "VID": 7887,
      "YY": 7888,
      "bic": 7889,
      "bir": 7890,
      "cra": 7891,
      "density": 7892,
      "eme": 7893,
      "emacs": 7894,
      "first": 7895,
      "giv": 7896,
      "ie": 7897,
      "ki": 7898,
      "ode": 7899,
      "pand": 7900,
      "v2": 7901,
      "wind": 7902,
      "xml": 7903,
      "¤": 7904,
      "ँहुच": 7905,
      "ंट्स": 7906,
      "आवर्": 7907,
      "ऊर्ध्वाधर": 7908,
      "ऑक्सीजन": 7909,
      "ओडे": 7910,
      "कटन": 7911,
      "कहें": 7912,
      "ग्यु": 7913,
      "तन": 7914,
      "थॉ": 7915,
      "नजर": 7916,
      "पारा": 7917,
      "पदी": 7918,
      "पँहुच": 7919,
      "फौरी": 7920,
      "बरोस": 7921,
      "मपु": 7922,
      "मजे": 7923,
      "रName": 7924,
      "लंगर": 7925,
      "ियां": 7926,
      "ूर्ति": 7927,
      "करबरोस": 7928,
      "स्प्र": 7929,
      "केला": 7930,
      "केले": 7931,
      "केसि": 7932,
      "केतु": 7933,
      "केएल्जियम": 7934,
      "कोलं": 7935,
      "कोटियाँ": 7936,
      "ताइ": 7937,
      "प्रकटन": 7938,
      "संयोजन": 7939,
      "लिलो": 7940,
      "लियाँ": 7941,
      "फ़ल": 7942,
      "फ़े": 7943,
      "ल्सा": 7944,
      "मास्क": 7945,
      "निटी": 7946,
      "निक्स": 7947,
      "निशान": 7948,
      "लेता": 7949,
      "देशी": 7950,
      "वालों": 7951,
      "आपूर्ति": 7952,
      "सांग": 7953,
      "मिटर": 7954,
      "डिके": 7955,
      "न्गो": 7956,
      "समबर्ग": 7957,
      "होएँ": 7958,
      "टिंट": 7959,
      "खोजा": 7960,
      "डाला": 7961,
      "डीटीएस": 7962,
      "डीएओ": 7963,
      "रीस्टो": 7964,
      "रीयल": 7965,
      "द्मिक": 7966,
      "छविः": 7967,
      "ब्लें": 7968,
      "चयनकर्ता": 7969,
      "thday": 7970,
      "कुत्": 7971,
      "सियो": 7972,
      "ंतरक": 7973,
      "मिटाई": 7974,
      "सर्जक": 7975,
      "जीत": 7976,
      "रोक": 7977,
      "विंडोः": 7978,
      "वेल": 7979,
      "वेशन": 7980,
      "stat": 7981,
      "मुद्": 7982,
      "मोनिक": 7983,
      "reg": 7984,
      "rev": 7985,
      "एंटि": 7986,
      "प्लगेबल": 7987,
      "आईटीएस": 7988,
      "कैट": 7989,
      "फ़ॉक्स": 7990,
      "गोला": 7991,
      "स्क्रोल": 7992,
      "सारी": 7993,
      "sele": 7994,
      "फ्रैग": 7995,
      "अभिभाव": 7996,
      "एसक्यू": 7997,
      "संख्याएँ": 7998,
      "नोटेशन": 7999,
      "आउटगो": 8000,
      "आरंभन": 8001,
      "हिंटिंग": 8002,
      "RSS": 8003,
      "बर्त": 8004,
      "छोड़े": 8005,
      "फाल्सCity": 8006,
      "act": 8007,
      "defin": 8008,
      "फ़िल्टरः": 8009,
      "पहुँचने": 8010,
      "पेंट": 8011,
      "सम्भव": 8012,
      "नेटमीटिंग": 8013,
      "जमाने": 8014,
      "सीमाएँ": 8015,
      "दबाया": 8016,
      "सेवाएँ": 8017,
      "गंतव्यः": 8018,
      "होस्टनेम": 8019,
      "वितर्क": 8020,
      "रूपांतरक": 8021,
      "प्रिंस": 8022,
      "इनपुटः": 8023,
      "र्मेटः": 8024,
      "timeFeb": 8025,
      "डेलिगेशन": 8026,
      "सिंकी": 8027,
      "editor": 8028,
      "कौमा": 8029,
      "लेखनयोग्य": 8030,
      "gramm": 8031,
      "उन्नयन": 8032,
      "anagar": 8033,
      "सतत": 8034,
      "किगाली": 8035,
      "cubic": 8036,
      "izer": 8037,
      "2312": 8038,
      "निरसन": 8039,
      "दूरीः": 8040,
      "Entry": 8041,
      "गलतीः": 8042,
      "अंधड़weather": 8043,
      "checksum": 8044,
      "ordin": 8045,
      "हायपरटेक्स्ट": 8046,
      "luke": 8047,
      "lzip": 8048,
      "रैप": 8049,
      "Apply": 8050,
      "आसपास": 8051,
      "1998": 8052,
      "1999": 8053,
      "आइसो": 8054,
      "Item": 8055,
      "खरीदारी": 8056,
      "क्विज": 8057,
      "घूर्ण": 8058,
      "द्विपदी": 8059,
      "filter": 8060,
      "लेबल्स": 8061,
      "तीव्रता": 8062,
      "InsertInsert": 8063,
      "आरंभीकरण": 8064,
      "दुहराए": 8065,
      "Spot": 8066,
      "Big5": 8067,
      "स्प्लैश": 8068,
      "पुनर्निर्देशन": 8069,
      "लक्समबर्ग": 8070,
      "annivers": 8071,
      "हेलसिंकी": 8072,
      "एपर्चर": 8073,
      "सल्वाडोर": 8074,
      "क्रिप्टो": 8075,
      "डेनियल": 8076,
      "सुपुर्द": 8077,
      "सिंबालिक": 8078,
      "Cancel": 8079,
      "VIDEO": 8080,
      "birthday": 8081,
      "given": 8082,
      "नजरअंदाज": 8083,
      "मपुटो": 8084,
      "फ्रैगमेंट": 8085,
      "अभिभावक": 8086,
      "anagari": 8087,
      "घूर्णन": 8088,
      "द्विपदीय": 8089,
      "anniversary": 8090,
      "38": 8091,
      "87": 8092,
      "NON": 8093,
      "On": 8094,
      "RO": 8095,
      "SP": 8096,
      "Sm": 8097,
      "Way": 8098,
      "bor": 8099,
      "bind": 8100,
      "ct": 8101,
      "efin": 8102,
      "mul": 8103,
      "spin": 8104,
      "vcard": 8105,
      "अतः": 8106,
      "अच्छ": 8107,
      "आगो": 8108,
      "आड़ी": 8109,
      "इटा": 8110,
      "इमेल": 8111,
      "इताल": 8112,
      "उरू": 8113,
      "एप्लेट": 8114,
      "चीन": 8115,
      "जमै": 8116,
      "टली": 8117,
      "डल": 8118,
      "तें": 8119,
      "दश": 8120,
      "मले": 8121,
      "म्यू": 8122,
      "रट": 8123,
      "रस": 8124,
      "रखो": 8125,
      "वटी": 8126,
      "शतर": 8127,
      "सजीवित": 8128,
      "सड़क": 8129,
      "हतर": 8130,
      "ां": 8131,
      "ौता": 8132,
      "स्पिन": 8133,
      "केक": 8134,
      "क्यो": 8135,
      "कोने": 8136,
      "नाउ": 8137,
      "प्रद": 8138,
      "संरक्ष": 8139,
      "सेल्": 8140,
      "विंग": 8141,
      "विन्": 8142,
      "जाय": 8143,
      "माफ": 8144,
      "माCity": 8145,
      "नियन": 8146,
      "किला": 8147,
      "तिर": 8148,
      "पाप": 8149,
      "पायेगा": 8150,
      "क्षे": 8151,
      "साउ": 8152,
      "साका": 8153,
      "क्रै": 8154,
      "मिमी": 8155,
      "डिकोडर": 8156,
      "न्टे": 8157,
      "समझा": 8158,
      "योगिता": 8159,
      "ito": 8160,
      "दाद": 8161,
      "बायी": 8162,
      "बांध": 8163,
      "edefin": 8164,
      "लोडर": 8165,
      "पूछा": 8166,
      "टीएलएस": 8167,
      "ग्रहों": 8168,
      "कियाः": 8169,
      "back": 8170,
      "रेन": 8171,
      "जीआई": 8172,
      "वेलि": 8173,
      "वेल्": 8174,
      "पुर्त": 8175,
      "इनक्लू": 8176,
      "ature": 8177,
      "डेका": 8178,
      "मोर": 8179,
      "ंकन": 8180,
      "श्चि": 8181,
      "श्याम": 8182,
      "टेट": 8183,
      "पीजीपी": 8184,
      "एवोल्यूशनजबतक": 8185,
      "पेस्ट": 8186,
      "पेरे": 8187,
      "स्थानों": 8188,
      "प्रतिरूप": 8189,
      "प्रतियोगिता": 8190,
      "याँः": 8191,
      "टैलिक": 8192,
      "उपयोक्ताः": 8193,
      "प्रारंभः": 8194,
      "नोCity": 8195,
      "exe": 8196,
      "एक्सइफ": 8197,
      "संगमर": 8198,
      "जिसपर": 8199,
      "ण्डेशन": 8200,
      "रेंस": 8201,
      "पहुँचा": 8202,
      "पूर्वनिर्धारित": 8203,
      "फाउंड": 8204,
      "मैट": 8205,
      "ड्राइल": 8206,
      "क्लिपिंग": 8207,
      "बोआ": 8208,
      "पेंडें": 8209,
      "सम्पूर्ण": 8210,
      "चरित": 8211,
      "शैल": 8212,
      "चेतावनि": 8213,
      "दबाके": 8214,
      "दरः": 8215,
      "कॉपीराइट": 8216,
      "प्रदर्शकName": 8217,
      "श्रेणीविस्तार": 8218,
      "मकड़ी": 8219,
      "चैनलः": 8220,
      "hany": 8221,
      "reek": 8222,
      "distribution": 8223,
      "कक्षों": 8224,
      "Inte": 8225,
      "predefin": 8226,
      "पैकेजः": 8227,
      "सांता": 8228,
      "प्रोटोकॉल्स": 8229,
      "दोहराने": 8230,
      "खिलाड़ियों": 8231,
      "विशेषताओं": 8232,
      "छाँटा": 8233,
      "प्राक्सीः": 8234,
      "शॉट": 8235,
      "भूमिकाः": 8236,
      "शब्दकोष": 8237,
      "संगठनकर्ता": 8238,
      "पैरामीटर्सः": 8239,
      "मीटरunit": 8240,
      "String": 8241,
      "अवयवों": 8242,
      "ट्रांसपोर्ट": 8243,
      "फाइल्स": 8244,
      "क्षितिज": 8245,
      "र्जिया": 8246,
      "आंशिक": 8247,
      "डिजिटली": 8248,
      "समझौता": 8249,
      "लपेटें": 8250,
      "mark": 8251,
      "बल्क": 8252,
      "प्राधिकारी": 8253,
      "सजावटी": 8254,
      "बर्फबारीweather": 8255,
      "टैम्प्लेट": 8256,
      "लिंक्स": 8257,
      "दिखेगा": 8258,
      "एपिफेनी": 8259,
      "बहिर्": 8260,
      "ग्रूपवाइज": 8261,
      "सबर्गCity": 8262,
      "cape": 8263,
      "मलव": 8264,
      "लातिन": 8265,
      "ग्वाटेमाला": 8266,
      "आकाशगंगाobject": 8267,
      "वाल्दो": 8268,
      "separator": 8269,
      "विज़ेट": 8270,
      "यूटिलिटी": 8271,
      "अल्बानिया": 8272,
      "month": 8273,
      "Place": 8274,
      "mkisofs": 8275,
      "लोअरकेस": 8276,
      "फाउण्डेशन": 8277,
      "मजेदार": 8278,
      "रीस्टोरेशन": 8279,
      "बर्तमान": 8280,
      "NONE": 8281,
      "अच्छी": 8282,
      "इतालवी": 8283,
      "जमैका": 8284,
      "दशमलव": 8285,
      "शतरंज": 8286,
      "पुर्तगा": 8287,
      "संगमरमर": 8288,
      "फाउंडेशन": 8289,
      "predefinito": 8290,
      "28": 8291,
      "Chan": 8292,
      "Dj": 8293,
      "Dec": 8294,
      "Due": 8295,
      "Down": 8296,
      "DUE": 8297,
      "FA": 8298,
      "Go": 8299,
      "Help": 8300,
      "MB": 8301,
      "NAT": 8302,
      "PDF": 8303,
      "abl": 8304,
      "cl": 8305,
      "fp": 8306,
      "jpg": 8307,
      "mit": 8308,
      "rs": 8309,
      "san": 8310,
      "secure": 8311,
      "vo": 8312,
      "win": 8313,
      "ze": 8314,
      "अरा": 8315,
      "असंगत": 8316,
      "असंपीड़ित": 8317,
      "आसा": 8318,
      "एंग": 8319,
      "एमुले": 8320,
      "खर": 8321,
      "गरी": 8322,
      "गतम": 8323,
      "तला": 8324,
      "दल": 8325,
      "धर्म": 8326,
      "नः": 8327,
      "बफ": 8328,
      "यही": 8329,
      "यरो": 8330,
      "ुत": 8331,
      "ुष": 8332,
      "्री": 8333,
      "काटा": 8334,
      "कासा": 8335,
      "काबुल": 8336,
      "याCity": 8337,
      "स्पी": 8338,
      "हैशिंग": 8339,
      "क्ली": 8340,
      "कोस्टा": 8341,
      "नास": 8342,
      "नाName": 8343,
      "प्रलेखन": 8344,
      "संग्राहक": 8345,
      "लिब्रे": 8346,
      "सेलो": 8347,
      "सेल्स": 8348,
      "विला": 8349,
      "विज्ञापन": 8350,
      "करेंComment": 8351,
      "माड्यूल": 8352,
      "नियुक्ति": 8353,
      "लापता": 8354,
      "वात": 8355,
      "साधन": 8356,
      "सांस": 8357,
      "सान्ता": 8358,
      "डिर": 8359,
      "डिपेंडें": 8360,
      "न्थ": 8361,
      "न्या": 8362,
      "न्हा": 8363,
      "मेगा": 8364,
      "रांक": 8365,
      "रास्ते": 8366,
      "टिल": 8367,
      "टिलस": 8368,
      "रिका": 8369,
      "रिसाइ": 8370,
      "रिसोर्स": 8371,
      "बाडी": 8372,
      "बार्डर": 8373,
      "लोम": 8374,
      "inese": 8375,
      "दिखाये": 8376,
      "कार्ता": 8377,
      "त्ति": 8378,
      "वीकैलेंडर": 8379,
      "अनुज्ञा": 8380,
      "टीम": 8381,
      "परिस्थिति": 8382,
      "ग्रन्थ": 8383,
      "ब्लेक": 8384,
      "सर्विस": 8385,
      "जीक्यू": 8386,
      "ज़ः": 8387,
      "मौड्यूल": 8388,
      "मौखिक": 8389,
      "लाइज": 8390,
      "मोड़ें": 8391,
      "गुच्छ": 8392,
      "सूचनार्थ": 8393,
      "बिट्स": 8394,
      "रंगीन": 8395,
      "आरक्षित": 8396,
      "बैंक": 8397,
      "पेरिस": 8398,
      "दीनार": 8399,
      "फिरसे": 8400,
      "सुस्वा": 8401,
      "ग्राफी": 8402,
      "ग्राफ़िक्स": 8403,
      "बदलेंः": 8404,
      "हस्ताछर": 8405,
      "अभिन्यास": 8406,
      "गुणधर्म": 8407,
      "उनसे": 8408,
      "APOP": 8409,
      "तोड़": 8410,
      "द्रे": 8411,
      "भूमध्य": 8412,
      "दस्तावेज़ों": 8413,
      "पोल": 8414,
      "पोवरे": 8415,
      "डीवीआई": 8416,
      "मिलता": 8417,
      "query": 8418,
      "मैट्रिक्स": 8419,
      "आधारः": 8420,
      "पुनर्स्थापित": 8421,
      "पारसिंग": 8422,
      "चीजों": 8423,
      "डोडेका": 8424,
      "क्सेस": 8425,
      "tern": 8426,
      "घुमाने": 8427,
      "ब्राउज": 8428,
      "पेंटिंग": 8429,
      "बॉर्डर": 8430,
      "वर्गों": 8431,
      "केडीईडी": 8432,
      "निकाले": 8433,
      "पाइन्ट": 8434,
      "अक्षों": 8435,
      "eek": 8436,
      "स्तंभों": 8437,
      "विश्लेषक": 8438,
      "श्रीमती": 8439,
      "below": 8440,
      "फैक्टर": 8441,
      "स्लाइसिंग": 8442,
      "मूल्यः": 8443,
      "क्यूटी": 8444,
      "कड़ीबद्ध": 8445,
      "स्टार्म": 8446,
      "when": 8447,
      "खींचकर": 8448,
      "सिंक्रो": 8449,
      "धुरी": 8450,
      "etc": 8451,
      "जिनके": 8452,
      "तारीख़ः": 8453,
      "स्थिरांक": 8454,
      "त्रिकोण": 8455,
      "उन्नता": 8456,
      "नुस्": 8457,
      "moon": 8458,
      "move": 8459,
      "एन्टी": 8460,
      "1996": 8461,
      "Webcam": 8462,
      "एक्सप्रेस": 8463,
      "नॉटिलस": 8464,
      "ज़ेड": 8465,
      "रैम": 8466,
      "GLSL": 8467,
      "दिखाएगा": 8468,
      "शहरः": 8469,
      "मापदण्ड": 8470,
      "seconds": 8471,
      "cm3x": 8472,
      "रेखीय": 8473,
      "पोस्टस्क्रिप्ट": 8474,
      "श्रेणियां": 8475,
      "उन्मुखीकरण": 8476,
      "व्यवस्थापक": 8477,
      "डबल्यूएमComment": 8478,
      "ग्रेडिएंटटाइप": 8479,
      "असफ़ल": 8480,
      "फ़ैक्टर": 8481,
      "रियल्म": 8482,
      "यूएसबी": 8483,
      "Chinese": 8484,
      "थोक": 8485,
      "बादलweather": 8486,
      "टैम्प्ले": 8487,
      "किलोग्राम": 8488,
      "चिन्ह": 8489,
      "संस्थापना": 8490,
      "टीपः": 8491,
      "PATH": 8492,
      "choose": 8493,
      "डिस्प्ले": 8494,
      "टिमटिमाता": 8495,
      "लोकप्रिय": 8496,
      "entication": 8497,
      "लॉगरिद्मिक": 8498,
      "मंगोलिया": 8499,
      "आउटगोइंग": 8500,
      "Wayland": 8501,
      "संरक्षित": 8502,
      "abled": 8503,
      "सुस्वागतम": 8504,
      "डोडेकाहेडेरॉन": 8505,
      "AIN": 8506,
      "Ber": 8507,
      "CO": 8508,
      "DO": 8509,
      "IAS": 8510,
      "NOT": 8511,
      "Pix": 8512,
      "Secure": 8513,
      "UIN": 8514,
      "gz": 8515,
      "jabber": 8516,
      "kit": 8517,
      "ob": 8518,
      "please": 8519,
      "sit": 8520,
      "ular": 8521,
      "voc": 8522,
      "ँचे": 8523,
      "अनि": 8524,
      "अंडो": 8525,
      "इर": 8526,
      "इल": 8527,
      "इश": 8528,
      "इलेक्": 8529,
      "ईटैलिक": 8530,
      "उसका": 8531,
      "उठा": 8532,
      "ऋणा": 8533,
      "ऑक्": 8534,
      "कन्स": 8535,
      "ख्": 8536,
      "जम्प": 8537,
      "जेंट": 8538,
      "जकार्ता": 8539,
      "टरिंग": 8540,
      "डच": 8541,
      "थै": 8542,
      "नली": 8543,
      "पाइल": 8544,
      "पड़ा": 8545,
      "बर्ष": 8546,
      "भ्वा": 8547,
      "लूट": 8548,
      "वही": 8549,
      "शल": 8550,
      "शटर": 8551,
      "शक्ति": 8552,
      "शरन": 8553,
      "शृंखला": 8554,
      "सपोर्ट": 8555,
      "ुत्": 8556,
      "र्च": 8557,
      "स्वे": 8558,
      "केण्ड": 8559,
      "क्स्ड": 8560,
      "कोइ": 8561,
      "नार्": 8562,
      "नाडा": 8563,
      "प्रशि": 8564,
      "संकेंद्र": 8565,
      "संघटक": 8566,
      "संजीवित": 8567,
      "सेम": 8568,
      "सेरु": 8569,
      "नेको": 8570,
      "जाकर": 8571,
      "जार्ड": 8572,
      "माको": 8573,
      "मारें": 8574,
      "परPlay": 8575,
      "पात": 8576,
      "साई": 8577,
      "क्रॉन": 8578,
      "सूइट": 8579,
      "समतल": 8580,
      "नामस्थानः": 8581,
      "जोंग": 8582,
      "बायां": 8583,
      "बांग्": 8584,
      "सीढ़": 8585,
      "सीगो": 8586,
      "सीरियल": 8587,
      "खोजों": 8588,
      "पूरक": 8589,
      "टीवी": 8590,
      "ग्रस्त": 8591,
      "ग्रहित": 8592,
      "द्धि": 8593,
      "कुमार": 8594,
      "संपत्ति": 8595,
      "स्टॉ": 8596,
      "त्रुटियां": 8597,
      "arb": 8598,
      "वेक्टर": 8599,
      "प्रांत": 8600,
      "लाइन्स": 8601,
      "पिट": 8602,
      "मोनेको": 8603,
      "श्व": 8604,
      "समारा": 8605,
      "reas": 8606,
      "बैच": 8607,
      "क्रियाएं": 8608,
      "जेके": 8609,
      "जेम्स": 8610,
      "पेसो": 8611,
      "कैरट": 8612,
      "old": 8613,
      "व्युत्": 8614,
      "युग": 8615,
      "प्रमाणन": 8616,
      "बेहतर": 8617,
      "दूनिया": 8618,
      "टोर": 8619,
      "चुके": 8620,
      "कुंजीः": 8621,
      "कालम": 8622,
      "परिवर्तनः": 8623,
      "न्यूजीलैंड": 8624,
      "हिल": 8625,
      "che": 8626,
      "chand": 8627,
      "वेबकिट": 8628,
      "extr": 8629,
      "बैठकों": 8630,
      "उत्सर्": 8631,
      "उत्तरा": 8632,
      "जुड़ी": 8633,
      "ARG": 8634,
      "दिखायेंः": 8635,
      "viron": 8636,
      "आंकडे": 8637,
      "बोस्टन": 8638,
      "अग्रभूमि": 8639,
      "स्वीकारता": 8640,
      "प्लेबैक": 8641,
      "फेल": 8642,
      "औज़ारName": 8643,
      "औज़ारपट्टी": 8644,
      "आउटपुटः": 8645,
      "मेनुअल": 8646,
      "बीचCity": 8647,
      "बजाएं": 8648,
      "MAIN": 8649,
      "भिन्नता": 8650,
      "verb": 8651,
      "फ्रेश": 8652,
      "महजोंग": 8653,
      "लैंडCity": 8654,
      "लैंडस्केप": 8655,
      "क्रोम": 8656,
      "स्कैलिक्स": 8657,
      "ट्रां": 8658,
      "फंक्शन्स": 8659,
      "abular": 8660,
      "SSLS": 8661,
      "फॉल्ट": 8662,
      "एनकोडिंगः": 8663,
      "मिलीमीटर्स": 8664,
      "ग्रेनाडा": 8665,
      "संसाधित": 8666,
      "1250": 8667,
      "1252": 8668,
      "एक्जीक्यू": 8669,
      "3047": 8670,
      "जन्मदिनः": 8671,
      "वीकार्ड्स": 8672,
      "त्मकता": 8673,
      "textbox": 8674,
      "prefer": 8675,
      "संगठनात्मक": 8676,
      "mode": 8677,
      "वर्षगांठः": 8678,
      "एफआईटीएस": 8679,
      "बांटने": 8680,
      "खुद": 8681,
      "धुंधले": 8682,
      "पेक्षी": 8683,
      "Display": 8684,
      "कलाकृति": 8685,
      "तुर्कीश": 8686,
      "ओवरकास्ट": 8687,
      "ALIAS": 8688,
      "मानागुआ": 8689,
      "्राष्ट्रीय": 8690,
      "मारबल": 8691,
      "फील्डCity": 8692,
      "Appl": 8693,
      "मॉडलः": 8694,
      "pluginview": 8695,
      "मार्कअप": 8696,
      "हस्तगत": 8697,
      "ारेस्ट": 8698,
      "प्रतिबंधित": 8699,
      "ब्रॉउजर": 8700,
      "अलार्म": 8701,
      "बौछारें": 8702,
      "वीजीए": 8703,
      "पीडीएफ": 8704,
      "धूम": 8705,
      "अम्मान": 8706,
      "डोमिनिका": 8707,
      "093047": 8708,
      "फ्रेंच": 8709,
      "सावधानी": 8710,
      "ब्यूनस": 8711,
      "थंडरस्टार्म": 8712,
      "इनिट": 8713,
      "फ्रांसीसी": 8714,
      "केटीटीएसडी": 8715,
      "तूफानी": 8716,
      "त्यागना": 8717,
      "PLAIN": 8718,
      "ankumar": 8719,
      "बास्तियान": 8720,
      "अपेक्षित": 8721,
      "देशान्तरः": 8722,
      "चंदन": 8723,
      "दुर्घटनाग्रस्त": 8724,
      "crash": 8725,
      "ओडेसा": 8726,
      "स्प्रिंग": 8727,
      "कैटलॉग": 8728,
      "एसक्यूएल": 8729,
      "क्रिप्टोग्राफी": 8730,
      "इनक्लूड": 8731,
      "आसानी": 8732,
      "डिपेंडेंसी": 8733,
      "DOMAIN": 8734,
      "vocabular": 8735,
      "अंडोरा": 8736,
      "कन्सोल": 8737,
      "बर्षा": 8738,
      "reason": 8739,
      "व्युत्क्रम": 8740,
      "chandankumar": 8741,
      "उत्तरापेक्षी": 8742,
      "vironment": 8743,
      "vocabulary": 8744,
      "102": 8745,
      "620": 8746,
      "850": 8747,
      "Access": 8748,
      "Bl": 8749,
      "Doe": 8750,
      "Dele": 8751,
      "Gdb": 8752,
      "HK": 8753,
      "HZ": 8754,
      "JIS": 8755,
      "LO": 8756,
      "LTR": 8757,
      "MY": 8758,
      "Manager": 8759,
      "Par": 8760,
      "Shi": 8761,
      "TW": 8762,
      "TION": 8763,
      "TIS": 8764,
      "VIS": 8765,
      "What": 8766,
      "amb": 8767,
      "bsp": 8768,
      "car": 8769,
      "eting": 8770,
      "ges": 8771,
      "khi": 8772,
      "kish": 8773,
      "ner": 8774,
      "so": 8775,
      "sq": 8776,
      "slo": 8777,
      "tot": 8778,
      "v3": 8779,
      "wx": 8780,
      "ँट": 8781,
      "ंदा": 8782,
      "अट": 8783,
      "अरू": 8784,
      "आयर": 8785,
      "आख़": 8786,
      "आचरण": 8787,
      "इफर": 8788,
      "ईडी": 8789,
      "उफ़": 8790,
      "उड़": 8791,
      "एंड": 8792,
      "एडा": 8793,
      "एट्रि": 8794,
      "एरॉन": 8795,
      "कन्": 8796,
      "कल्प": 8797,
      "जंग": 8798,
      "टता": 8799,
      "डकोटा": 8800,
      "दCity": 8801,
      "नव": 8802,
      "फCity": 8803,
      "बढा": 8804,
      "मर्": 8805,
      "मीन": 8806,
      "शर्": 8807,
      "हॉट": 8808,
      "िरी": 8809,
      "१००": 8810,
      "र्विन": 8811,
      "यात्रा": 8812,
      "स्नै": 8813,
      "केप": 8814,
      "क्व": 8815,
      "क्टिव": 8816,
      "कोरो": 8817,
      "कोपेन": 8818,
      "नाव": 8819,
      "प्रपत्र": 8820,
      "मेंडो": 8821,
      "लिओ": 8822,
      "लिस्": 8823,
      "लिप्": 8824,
      "ल्गार": 8825,
      "माल्टा": 8826,
      "ont": 8827,
      "परः": 8828,
      "निलंब": 8829,
      "tiv": 8830,
      "means": 8831,
      "meeting": 8832,
      "किमी": 8833,
      "किरण": 8834,
      "लेड": 8835,
      "खाने": 8836,
      "वाच": 8837,
      "वार्य": 8838,
      "सागर": 8839,
      "प्टेड": 8840,
      "क्रु": 8841,
      "डिश": 8842,
      "न्गा": 8843,
      "सूर्": 8844,
      "सूचन": 8845,
      "रूलर": 8846,
      "रिश": 8847,
      "रिपो": 8848,
      "बाय": 8849,
      "सकेंगे": 8850,
      "डार्विन": 8851,
      "लोCity": 8852,
      "कार्स्टेन": 8853,
      "roati": 8854,
      "dom": 8855,
      "डीएन": 8856,
      "टीमाइ": 8857,
      "लीट": 8858,
      "गाना": 8859,
      "स्टल": 8860,
      "रोल": 8861,
      "रोका": 8862,
      "येरे": 8863,
      "arsi": 8864,
      "शिरा": 8865,
      "शान्": 8866,
      "डेक्स": 8867,
      "जिटरी": 8868,
      "हेलेना": 8869,
      "कॉस": 8870,
      "left": 8871,
      "एवम्": 8872,
      "फाइलः": 8873,
      "आरएसआई": 8874,
      "बैन": 8875,
      "पट्टीNAME": 8876,
      "चेहरे": 8877,
      "जेस": 8878,
      "थाः": 8879,
      "गेन": 8880,
      "कैलेन्": 8881,
      "मेरिनो": 8882,
      "बनाएँः": 8883,
      "बेले": 8884,
      "बारें": 8885,
      "स्वीडन": 8886,
      "वैधः": 8887,
      "पैलेट": 8888,
      "टैं": 8889,
      "using": 8890,
      "urmu": 8891,
      "तयशुदाः": 8892,
      "नोल": 8893,
      "नोस": 8894,
      "प्रोग्रामों": 8895,
      "कालटिप्स": 8896,
      "tog": 8897,
      "विन्यासों": 8898,
      "ched": 8899,
      "साइटें": 8900,
      "exec": 8901,
      "पोव": 8902,
      "जवाबः": 8903,
      "वादशाह": 8904,
      "मैक्सिको": 8905,
      "आधारों": 8906,
      "account": 8907,
      "स्मरण": 8908,
      "ड्रिड": 8909,
      "भावित": 8910,
      "ब्राजी": 8911,
      "बुल्गार": 8912,
      "वर्डस": 8913,
      "क्लिप्": 8914,
      "डिफ़ॉल्टः": 8915,
      "पासवर्ड्स": 8916,
      "बढ़त": 8917,
      "सामग्र": 8918,
      "migrat": 8919,
      "पूछता": 8920,
      "लुसिया": 8921,
      "शेडो": 8922,
      "ाइनर": 8923,
      "फैक्टो": 8924,
      "महज": 8925,
      "इंटरप्ट": 8926,
      "रेखाओं": 8927,
      "क्यूबा": 8928,
      "minimal": 8929,
      "परिवर्धक": 8930,
      "स्वाभावित": 8931,
      "prop": 8932,
      "server": 8933,
      "डेलिमिटर": 8934,
      "रॉक": 8935,
      "रॉबर्ट": 8936,
      "अरब": 8937,
      "tore": 8938,
      "ग्रेड": 8939,
      "मार्टिन": 8940,
      "1251": 8941,
      "1253": 8942,
      "1254": 8943,
      "1255": 8944,
      "1256": 8945,
      "1257": 8946,
      "1258": 8947,
      "डायल": 8948,
      "आयर्स": 8949,
      "sudo": 8950,
      "पश्चात्": 8951,
      "संकुलः": 8952,
      "नुक": 8953,
      "गिर": 8954,
      "बाइंड": 8955,
      "बाइट्स": 8956,
      "घटाई": 8957,
      "ocks": 8958,
      "अंतर्राष्ट्रीय": 8959,
      "बांया": 8960,
      "गैलरी": 8961,
      "बनता": 8962,
      "CVSRO": 8963,
      "पंजीयन": 8964,
      "जीपीएक्स": 8965,
      "आईपीटीसी": 8966,
      "assword": 8967,
      "सर्वाधिक": 8968,
      "फील्ड्स": 8969,
      "आरोही": 8970,
      "बुलबुले": 8971,
      "OPTION": 8972,
      "बैकएण्डName": 8973,
      "recurring": 8974,
      "864": 8975,
      "866": 8976,
      "इतना": 8977,
      "852": 8978,
      "855": 8979,
      "857": 8980,
      "अवरोही": 8981,
      "समझने": 8982,
      "ग्रैविटी": 8983,
      "एनिमेट": 8984,
      "विडजेट": 8985,
      "एक्सेसेबल": 8986,
      "एक्सेसेबेल": 8987,
      "Trans": 8988,
      "एनक्रिप्टेड": 8989,
      "लेनदेन": 8990,
      "include": 8991,
      "सर्वोच्च": 8992,
      "OpenChan": 8993,
      "डुप्ली": 8994,
      "ऑप्टीमाइ": 8995,
      "ग्राफिक्स": 8996,
      "हांगकांग": 8997,
      "निष्पादित": 8998,
      "निष्पादनीय": 8999,
      "18030": 9000,
      "क्लटर": 9001,
      "राजधानी": 9002,
      "jarati": 9003,
      "लायब्रेरी": 9004,
      "स्ट्रिगी": 9005,
      "Color": 9006,
      "compress": 9007,
      "Icons": 9008,
      "NetworkManager": 9009,
      "न्यूट्रल": 9010,
      "डॉयलपैड": 9011,
      "password": 9012,
      "अन्वेषक": 9013,
      "व्हील": 9014,
      "जीवनसाथी": 9015,
      "एस्टल्स": 9016,
      "rolename": 9017,
      "एक्सएमपी": 9018,
      "योगदानकर्ताः": 9019,
      "केसिर्क": 9020,
      "ताइपे": 9021,
      "874": 9022,
      "Smith": 9023,
      "ांकों": 9024,
      "विन्डो": 9025,
      "Download": 9026,
      "तलाश": 9027,
      "टैम्प्लेटः": 9028,
      "अनिवार्य": 9029,
      "एक्जीक्यूटेबल": 9030,
      "1024": 9031,
      "Shift": 9032,
      "VISCII": 9033,
      "आख़िरी": 9034,
      "कोपेनहे": 9035,
      "roatian": 9036,
      "कैलेन्डर": 9037,
      "urmukhi": 9038,
      "migrator": 9039,
      "CVSROOT": 9040,
      "OpenChange": 9041,
      "डुप्लीकेट": 9042,
      "AU": 9043,
      "Came": 9044,
      "Do": 9045,
      "DIR": 9046,
      "Epip": 9047,
      "Ker": 9048,
      "MM": 9049,
      "Na": 9050,
      "Past": 9051,
      "RX": 9052,
      "Sh": 9053,
      "Set": 9054,
      "Tra": 9055,
      "Talk": 9056,
      "cj": 9057,
      "cn": 9058,
      "cent": 9059,
      "cos": 9060,
      "gcr": 9061,
      "kar": 9062,
      "long": 9063,
      "mary": 9064,
      "over": 9065,
      "pst": 9066,
      "sma": 9067,
      "sEnter": 9068,
      "task": 9069,
      "udi": 9070,
      "vol": 9071,
      "vas": 9072,
      "was": 9073,
      "अपर": 9074,
      "अबा": 9075,
      "असीमित": 9076,
      "अलेक्": 9077,
      "अतं": 9078,
      "आग": 9079,
      "आफिस": 9080,
      "इंट": 9081,
      "इत्या": 9082,
      "एस्तो": 9083,
      "एलियासिंग": 9084,
      "एनोटेशन": 9085,
      "ऐप्लेट": 9086,
      "ऑप": 9087,
      "ओके": 9088,
      "ओपी": 9089,
      "खारेस्ट": 9090,
      "गॉ": 9091,
      "जाइ": 9092,
      "ज्यू": 9093,
      "जहरी": 9094,
      "टम": 9095,
      "टका": 9096,
      "ठनिक": 9097,
      "ठमांड": 9098,
      "धारा": 9099,
      "धीन": 9100,
      "नम": 9101,
      "पर्थ": 9102,
      "बचें": 9103,
      "मकाओ": 9104,
      "यनी": 9105,
      "रहित": 9106,
      "रफलक": 9107,
      "व्रे": 9108,
      "सfrance": 9109,
      "सलाम": 9110,
      "हन": 9111,
      "ियो": 9112,
      "कालि": 9113,
      "काठमांड": 9114,
      "यानी": 9115,
      "स्पाइ": 9116,
      "केर": 9117,
      "केल्": 9118,
      "केमन": 9119,
      "क्टि": 9120,
      "नाworld": 9121,
      "प्रकार्य": 9122,
      "संचार": 9123,
      "मेंस": 9124,
      "लिश": 9125,
      "सेव": 9126,
      "विनि": 9127,
      "विस्टा": 9128,
      "ल्पा": 9129,
      "मास्को": 9130,
      "निदेश": 9131,
      "देल": 9132,
      "देव": 9133,
      "लाया": 9134,
      "लार्ड": 9135,
      "पाज": 9136,
      "ameter": 9137,
      "टान": 9138,
      "सास": 9139,
      "प्लो": 9140,
      "प्टिव": 9141,
      "न्टो": 9142,
      "समस": 9143,
      "मेकर": 9144,
      "मेसि": 9145,
      "मेयर": 9146,
      "होर्स": 9147,
      "रिच": 9148,
      "रिवो": 9149,
      "दायां": 9150,
      "अनधि": 9151,
      "बास": 9152,
      "बाकू": 9153,
      "बाल्सा": 9154,
      "opment": 9155,
      "वर्डे": 9156,
      "डालना": 9157,
      "क्रिसमस": 9158,
      "डीसीसी": 9159,
      "डीपीआई": 9160,
      "oriz": 9161,
      "लीName": 9162,
      "ब्बर": 9163,
      "notation": 9164,
      "कुर्": 9165,
      "सिले": 9166,
      "रेटर": 9167,
      "रेक्ट": 9168,
      "रेग्यु": 9169,
      "रोबी": 9170,
      "पुश": 9171,
      "ences": 9172,
      "इनसाइ": 9173,
      "फिया": 9174,
      "साथः": 9175,
      "मोन्": 9176,
      "जिब्रा": 9177,
      "कॉर्डिंग": 9178,
      "उपयोगों": 9179,
      "पीआईडी": 9180,
      "रंगा": 9181,
      "आरडब्ल्यू": 9182,
      "वैसे": 9183,
      "योजित": 9184,
      "सहेजेंः": 9185,
      "पेन्": 9186,
      "elopment": 9187,
      "दीव": 9188,
      "आईएम": 9189,
      "कैल": 9190,
      "गोर": 9191,
      "सुल": 9192,
      "बेकर्स": 9193,
      "स्क्रॉ": 9194,
      "ute": 9195,
      "बीडी": 9196,
      "प्रतिविलोपन": 9197,
      "एसलि": 9198,
      "दोहरी": 9199,
      "फोर्क": 9200,
      "दुशान्": 9201,
      "इंचेस": 9202,
      "भूकेंद्र": 9203,
      "कमरे": 9204,
      "पोली": 9205,
      "light": 9206,
      "जुए": 9207,
      "बर्ड": 9208,
      "बर्लिन": 9209,
      "बटनों": 9210,
      "जिसकी": 9211,
      "मिलनी": 9212,
      "मैच": 9213,
      "मैड्रिड": 9214,
      "unak": 9215,
      "पुनर्निदेश": 9216,
      "चैन": 9217,
      "सेंसर": 9218,
      "andard": 9219,
      "contain": 9220,
      "खिसकाना": 9221,
      "तंत्रः": 9222,
      "बुखारेस्ट": 9223,
      "तस्वीरें": 9224,
      "भाषाः": 9225,
      "प्रबंधकComment": 9226,
      "पुनःआरंभ": 9227,
      "होगाः": 9228,
      "icable": 9229,
      "पॉली": 9230,
      "वरीय": 9231,
      "And": 9232,
      "पहचानें": 9233,
      "जैब्बर": 9234,
      "दरलैंड": 9235,
      "रिकवर": 9236,
      "स्केल्ड": 9237,
      "ाइनरी": 9238,
      "भंडारन": 9239,
      "प्रकाशक": 9240,
      "लेखकPermissionsLevel": 9241,
      "कारणों": 9242,
      "रेखांकन": 9243,
      "व्ला": 9244,
      "व्हि": 9245,
      "एचपी": 9246,
      "नियमों": 9247,
      "CalItem": 9248,
      "फरमेंट": 9249,
      "ज्यादातर": 9250,
      "गणनाः": 9251,
      "ebin": 9252,
      "रुम": 9253,
      "लाइसेंसः": 9254,
      "मिलीलीटर": 9255,
      "तारों": 9256,
      "सिंथ": 9257,
      "सिंथे": 9258,
      "बढ़ाता": 9259,
      "अंकित": 9260,
      "रियाल": 9261,
      "आयतों": 9262,
      "स्पैनी": 9263,
      "सिटीphilippines": 9264,
      "ऑब्जै": 9265,
      "एपीफैनी": 9266,
      "गुमनाम": 9267,
      "गारंटी": 9268,
      "व्यूयर": 9269,
      "बेलग्रेड": 9270,
      "विरोधों": 9271,
      "operties": 9272,
      "वेबसाइटों": 9273,
      "संगठनः": 9274,
      "माहदिया": 9275,
      "पार्ट्स": 9276,
      "पार्श्व": 9277,
      "Development": 9278,
      "आनलाइन": 9279,
      "जॉन": 9280,
      "face": 9281,
      "स्टीरियो": 9282,
      "डिग्रीज़": 9283,
      "north": 9284,
      "विंजो": 9285,
      "beros": 9286,
      "मार्कर्स": 9287,
      "सृजितः": 9288,
      "ड्राफ्ट": 9289,
      "अंतःसूत्र": 9290,
      "समीक्षक": 9291,
      "ऑपरेटर": 9292,
      "स्थानापन्न": 9293,
      "सौंप": 9294,
      "आटोमेक": 9295,
      "ग्रैब": 9296,
      "एनिमेशन": 9297,
      "लपेटा": 9298,
      "बल्सा": 9299,
      "हैंडल": 9300,
      "नैरोबी": 9301,
      "प्राधिकरण": 9302,
      "फ़ायरफ़ॉक्स": 9303,
      "एलियास": 9304,
      "जेनरेट": 9305,
      "क्लोन": 9306,
      "नेमस्पेस": 9307,
      "मनोभाव": 9308,
      "टियागो": 9309,
      "मोनोस्पेस": 9310,
      "फूटर": 9311,
      "मिक्सर": 9312,
      "पुछल्ले": 9313,
      "दुसरे": 9314,
      "चन्द्रमा": 9315,
      "डिजायनर": 9316,
      "entation": 9317,
      "भेंजेः": 9318,
      "घेरा": 9319,
      "सिंगापुर": 9320,
      "इंटरपोलेट": 9321,
      "Properties": 9322,
      "सांगठनिक": 9323,
      "384": 9324,
      "इटालिक": 9325,
      "मलेशिया": 9326,
      "क्षेप": 9327,
      "सिंक्रोनाइज़": 9328,
      "extract": 9329,
      "Applicable": 9330,
      "धूमकेतु": 9331,
      "Deleg": 9332,
      "आयरलैंड": 9333,
      "नुकसान": 9334,
      "Epiphany": 9335,
      "Kerberos": 9336,
      "Pastebin": 9337,
      "gcrd": 9338,
      "karunak": 9339,
      "अतंरफलक": 9340,
      "इत्यादि": 9341,
      "रेग्युलर": 9342,
      "इनसाइफरमेंट": 9343,
      "जिब्राल्टर": 9344,
      "दुशान्बे": 9345,
      "अंतःसूत्रित": 9346,
      "karunakar": 9347,
      "33": 9348,
      "3यू": 9349,
      "Catal": 9350,
      "DD": 9351,
      "DSL": 9352,
      "France": 9353,
      "Find": 9354,
      "Function": 9355,
      "JSO": 9356,
      "La": 9357,
      "Line": 9358,
      "Mon": 9359,
      "PT": 9360,
      "PST": 9361,
      "QU": 9362,
      "SI": 9363,
      "VCD": 9364,
      "Work": 9365,
      "bes": 9366,
      "emp": 9367,
      "ff": 9368,
      "fre": 9369,
      "gdb": 9370,
      "ied": 9371,
      "irec": 9372,
      "les": 9373,
      "mc": 9374,
      "nbsp": 9375,
      "oce": 9376,
      "pi": 9377,
      "pdf": 9378,
      "son": 9379,
      "sec": 9380,
      "xB": 9381,
      "ंकी": 9382,
      "ंजित": 9383,
      "आसार": 9384,
      "आफ्र": 9385,
      "आपरे": 9386,
      "इल्": 9387,
      "एत": 9388,
      "एथ": 9389,
      "एका": 9390,
      "एप्": 9391,
      "ओस्लो": 9392,
      "कया": 9393,
      "कुन": 9394,
      "खपर": 9395,
      "खदान": 9396,
      "गलिया": 9397,
      "घराना": 9398,
      "चली": 9399,
      "चरिंग": 9400,
      "झन": 9401,
      "टच": 9402,
      "डस": 9403,
      "डने": 9404,
      "तदन": 9405,
      "धूल": 9406,
      "पलेट": 9407,
      "फट": 9408,
      "बई": 9409,
      "बत्त": 9410,
      "बाइनरी": 9411,
      "भरी": 9412,
      "मयो": 9413,
      "यन्स": 9414,
      "यल्म": 9415,
      "लित": 9416,
      "वCity": 9417,
      "वजूद": 9418,
      "षित": 9419,
      "ससे": 9420,
      "हरान": 9421,
      "ुरूप": 9422,
      "ोसी": 9423,
      "काज": 9424,
      "कास": 9425,
      "काले": 9426,
      "कागो": 9427,
      "याक्वि": 9428,
      "स्नो": 9429,
      "स्प्रे": 9430,
      "केशन": 9431,
      "हैली": 9432,
      "क्लॉन्": 9433,
      "कोणीय": 9434,
      "कोडेक्स": 9435,
      "नाitalyprovince": 9436,
      "प्रकार्या": 9437,
      "संस": 9438,
      "संगी": 9439,
      "िती": 9440,
      "सेक्टर": 9441,
      "विजु": 9442,
      "विजार्ड": 9443,
      "नेशिया": 9444,
      "जाया": 9445,
      "जान्स": 9446,
      "जाँचा": 9447,
      "मागा": 9448,
      "मास्टर": 9449,
      "नियोजित": 9450,
      "निचली": 9451,
      "tic": 9452,
      "ारी": 9453,
      "ारू": 9454,
      "कीन": 9455,
      "किरी": 9456,
      "दिस": 9457,
      "लाँ": 9458,
      "लाओ": 9459,
      "लेटर": 9460,
      "लेयर": 9461,
      "पार्स": 9462,
      "पार्कCity": 9463,
      "वालपे": 9464,
      "हान": 9465,
      "हाफ": 9466,
      "ंगCity": 9467,
      "आपसे": 9468,
      "क्ष्य": 9469,
      "ेजर": 9470,
      "समर": 9471,
      "समंजित": 9472,
      "alse": 9473,
      "योग्रा": 9474,
      "larus": 9475,
      "होक": 9476,
      "राने": 9477,
      "राउंड": 9478,
      "रूत": 9479,
      "रिज": 9480,
      "रियाद": 9481,
      "जोडे": 9482,
      "तेहरान": 9483,
      "eslot": 9484,
      "अनदेख": 9485,
      "बाज़ू": 9486,
      "बावजूद": 9487,
      "नीदरलैंड": 9488,
      "trash": 9489,
      "लोइ": 9490,
      "त्ज": 9491,
      "त्स": 9492,
      "त्तर": 9493,
      "वीजन": 9494,
      "अनुसूचन": 9495,
      "टीः": 9496,
      "रीयल्म": 9497,
      "परिप्रे": 9498,
      "निर्धी": 9499,
      "गाला": 9500,
      "स्टेशन": 9501,
      "सिलो": 9502,
      "सिखे": 9503,
      "रेफ": 9504,
      "रेटिंग": 9505,
      "गयाName": 9506,
      "मिटाता": 9507,
      "कृतः": 9508,
      "कृतिक": 9509,
      "जीबी": 9510,
      "रोड": 9511,
      "रोकी": 9512,
      "वेने": 9513,
      "वेटरी": 9514,
      "stan": 9515,
      "step": 9516,
      "प्राकृतिक": 9517,
      "मुड़ें": 9518,
      "शियन": 9519,
      "ंचे": 9520,
      "इनु": 9521,
      "इनों": 9522,
      "इनकोड": 9523,
      "क्सCity": 9524,
      "फिजी": 9525,
      "गुरेशन": 9526,
      "प्रोक": 9527,
      "प्रोसेस": 9528,
      "सूचनाओं": 9529,
      "टेगु": 9530,
      "पीला": 9531,
      "पीएसटी": 9532,
      "एंजे": 9533,
      "ouse": 9534,
      "ours": 9535,
      "हरारे": 9536,
      "जेएस": 9537,
      "पेपर": 9538,
      "पेरा": 9539,
      "कैरेट": 9540,
      "0000": 9541,
      "पहलेevent": 9542,
      "ecal": 9543,
      "बेरूत": 9544,
      "निर्देशिकाओं": 9545,
      "स्वीकृतः": 9546,
      "परियोजनाएँ": 9547,
      "प्रतिद्व": 9548,
      "प्रतिदिन": 9549,
      "चिह्नः": 9550,
      "मील": 9551,
      "dig": 9552,
      "फ्ले": 9553,
      "प्लगइनName": 9554,
      "घटित": 9555,
      "ढूंढना": 9556,
      "द्रव्य": 9557,
      "दुबई": 9558,
      "प्रोग्रामName": 9559,
      "कालः": 9560,
      "कालय": 9561,
      "न्यूम": 9562,
      "एलन": 9563,
      "यरबा": 9564,
      "ching": 9565,
      "निमंत्र": 9566,
      "फ़ॉन्टकॉन्फ़िग": 9567,
      "ईमेलः": 9568,
      "पोकर": 9569,
      "lient": 9570,
      "जुले": 9571,
      "छुप": 9572,
      "ऊपरः": 9573,
      "र्सCity": 9574,
      "अवरूद्ध": 9575,
      "एम3यू": 9576,
      "बलपूर्वक": 9577,
      "कॉन्टे": 9578,
      "सत्रों": 9579,
      "pac": 9580,
      "निम्नतम": 9581,
      "सेंटो": 9582,
      "cont": 9583,
      "connec": 9584,
      "belarus": 9585,
      "खिसकाएं": 9586,
      "प्रतीकः": 9587,
      "बुलर": 9588,
      "मालदीव": 9589,
      "बोलें": 9590,
      "tered": 9591,
      "ज्यार्जियाई": 9592,
      "लुसाका": 9593,
      "धागा": 9594,
      "ल्सः": 9595,
      "फेरो": 9596,
      "फेइफर": 9597,
      "पहचानकारक": 9598,
      "मॉन": 9599,
      "शेडर": 9600,
      "सोमा": 9601,
      "मेजिक": 9602,
      "लिखाः": 9603,
      "recip": 9604,
      "आईडीई": 9605,
      "ults": 9606,
      "चलाएँः": 9607,
      "व्यक्तिः": 9608,
      "कामकाज": 9609,
      "Server": 9610,
      "वित्": 9611,
      "संपर्को": 9612,
      "चैटः": 9613,
      "ट्रान": 9614,
      "items": 9615,
      "सकीः": 9616,
      "प्रत्यय": 9617,
      "ऊंचाईः": 9618,
      "मॉड्यू": 9619,
      "lobal": 9620,
      "रुक": 9621,
      "डॉट": 9622,
      "डॉल्": 9623,
      "ification": 9624,
      "मसौदे": 9625,
      "सेकंड": 9626,
      "मार्का": 9627,
      "END": 9628,
      "जिनका": 9629,
      "छाँटे": 9630,
      "त्रिपोली": 9631,
      "सन्दूक": 9632,
      "percent": 9633,
      "ताशकंद": 9634,
      "सेकण्ड्स": 9635,
      "counts": 9636,
      "आर्का": 9637,
      "टाइमस्टै": 9638,
      "Reset": 9639,
      "RCPT": 9640,
      "हाइलाइ": 9641,
      "GType": 9642,
      "उल्टा": 9643,
      "अपारिभाषित": 9644,
      "चमकीले": 9645,
      "Environment": 9646,
      "मेजबानित": 9647,
      "बेलारू": 9648,
      "score": 9649,
      "नॉर्थ": 9650,
      "टूटा": 9651,
      "छांटक": 9652,
      "शंघा": 9653,
      "फ़ोन": 9654,
      "बूलिए": 9655,
      "समुद्र": 9656,
      "ग्लेन": 9657,
      "जॉय": 9658,
      "रियोट": 9659,
      "फाइनल": 9660,
      "स्वरूपण": 9661,
      "मिलेगा": 9662,
      "resolution": 9663,
      "चोर": 9664,
      "इंटरफेसः": 9665,
      "क्वार्": 9666,
      "कलाकारः": 9667,
      "रनलेवल": 9668,
      "अवरोहण": 9669,
      "कूद": 9670,
      "ग्रैड": 9671,
      "शुक्रवार": 9672,
      "जुड़ेग": 9673,
      "एनक्रिप्ट": 9674,
[...]
